/*
  AIfES: Configuration file automatically generated from AIfES-Converter
  https://github.com/Fraunhofer-IMS/AIfES-Converter

  Add this file to your IDE with the aifes_e_q7_fnn.h file

  Copyright (C) 2022  Fraunhofer Institute for Microelectronic Circuits and Systems.
  All rights reserved.
  AIfES-Converter is free software: you can redistribute it and/or modify
  it under the terms of the GNU Affero General Public License as published by
  the Free Software Foundation, either version 3 of the License, or
  (at your option) any later version.
  This program is distributed in the hope that it will be useful,
  but WITHOUT ANY WARRANTY; without even the implied warranty of
  MERCHANTABILITY or FITNESS FOR A PARTICULAR PURPOSE.  See the
  GNU Affero General Public License for more details.
  You should have received a copy of the GNU Affero General Public License
  along with this program.  If not, see <https://www.gnu.org/licenses/>.
*/
#ifndef AIFES_E_Q7_MNIST_DENSE_WEIGHTS
#define AIFES_E_Q7_MNIST_DENSE_WEIGHTS


const uint32_t parameter_mnist_dense_memory_size = 26044;
const uint32_t model_mnist_dense_parameters[6511] = {
    0x00BA0007, 0x000D0002, 0x00EB0002, 0x001C0002, 0x00000008, 0xF4F0EDF9, 0xF008F4F6, 0x13EEF500, 
    0x0A10EF0E, 0xEEF70AF9, 0xEB080F04, 0x0E10F7F9, 0xF302F606, 0xFB07F900, 0x080DFC07, 0xEE02FDF9, 
    0x0902FBF5, 0xED12EF02, 0xF5F00603, 0xF5020303, 0xECF900F9, 0x12F312F2, 0x120E0F03, 0x0E03F613, 
    0xFB0EFD13, 0x120D1104, 0x1304F613, 0x0F0711FF, 0xEBF30D0A, 0x0C0B08F8, 0xF5F012FF, 0x020602FA, 
    0xFA030904, 0x05140E07, 0xEEFFFE16, 0x120F0D0C, 0x0CF71206, 0xF5000DF1, 0xFFF702F9, 0x12FCF712, 
    0xF7F502FC, 0x0B0B0213, 0xF2011305, 0xFE09EC00, 0x15F0F6FA, 0x080406ED, 0xF106FDFC, 0xEAF2F20E, 
    0x0914ED0C, 0xF8F8FEEE, 0x00FC0FEC, 0xEFECF301, 0xF5F202EE, 0x02F70009, 0xF80DFEFA, 0x0BF2F800, 
    0x0BF50901, 0x0B090C05, 0x070312FC, 0xF40809FA, 0xFAFB08FD, 0x08040BFF, 0x01F6F200, 0x07F5F1F4, 
    0xF0FEF9EA, 0xECEE03F1, 0xFB0410F8, 0xF5EFF601, 0xEBEDEFED, 0x050FF2F7, 0x1502EA10, 0xEBFC1506, 
    0xF907EE09, 0xEDF1F1F0, 0xEDF3F501, 0x020606FB, 0x050615ED, 0x0BF011F6, 0xFDFEFDEF, 0x0B14EEFF, 
    0xF90803EE, 0x070810F3, 0xFB121307, 0xF7F8FFFA, 0x05F90114, 0x12EEF40D, 0x03F3FA16, 0x10F50B0A, 
    0xFF02F9FD, 0x16F215ED, 0xEDF81212, 0x13F9010E, 0x0FED06EC, 0x0A08EB15, 0xF5FC04EF, 0xEBFA0F10, 
    0x050CFA0C, 0xFC10FFEE, 0xED03FBF7, 0xFBFC0C02, 0x000703EF, 0xF3021806, 0x17FFF501, 0xF7F6F2F1, 
    0x0D1AFE00, 0x01FEF300, 0x0D16F60B, 0xFCF50EF3, 0x140A0207, 0x09F7F3ED, 0x08FF100F, 0x0CF20410, 
    0xF018110B, 0xF0E7F40C, 0xF318EC13, 0xF6EBEDF3, 0x03FBFEF9, 0x01F717F6, 0x0BF90106, 0xFDFBF1F6, 
    0x1210070A, 0xF3051815, 0x090803FF, 0xF7060907, 0xF90401FB, 0x0B12F604, 0x0104110E, 0xFBF0EBF0, 
    0xFFF4F6EF, 0xF30B0308, 0x060DF305, 0xF6100503, 0xFAF31605, 0xEC160704, 0xF60CEB07, 0xFBFBF6FD, 
    0xF4140115, 0xF7EC0EEF, 0x04ED00F6, 0x0300F5EF, 0xFFF10F11, 0x0B0CFAF3, 0xEB06FEEF, 0x12F6FE03, 
    0xED0BF415, 0x06EA060F, 0x10EF09FB, 0x0C0400FC, 0x120F04EB, 0x0E05F704, 0x02EFF7FC, 0x16EA0308, 
    0xFC060BEC, 0xFD0EFDEC, 0xF712F90E, 0xF8ECF8F1, 0x0A1111FC, 0xFEF213FC, 0xEB0BFEF0, 0xF00CF7F2, 
    0xF30BEA01, 0x1208F3ED, 0xEF00F116, 0xEB0409F5, 0xF8F2000F, 0xFAFA1409, 0x0008F5FA, 0xEE11F6FA, 
    0x00080CFD, 0x0A04020E, 0x020EF9F0, 0x0DF20306, 0xF4FDFA12, 0x1606EC15, 0xFAF20212, 0x0AF3ED12, 
    0xF2F8ECF1, 0x14090EEC, 0xF0000D14, 0xF00FF8EB, 0xF30312FF, 0xF813F2EE, 0x03EE0DF8, 0xF3F60503, 
    0xFCF30A08, 0xF40A130D, 0x07F9FA03, 0x0DFC15FE, 0x0DEDFC03, 0x090507FC, 0xF5F402F5, 0xF403EF15, 
    0x1109EC0C, 0x0D080315, 0x05FFF505, 0xF2EF03EF, 0xFC05FE15, 0xFA06EEF6, 0xF8EEEE05, 0x04F31010, 
    0xFB08EBF2, 0xF612EB03, 0xFBF6F30A, 0xF6EBFD02, 0xF5F4F90C, 0x0D090B0E, 0xF00213F8, 0x0715F103, 
    0xED0EFCF6, 0x1505ECFB, 0x02FBFAF1, 0xFC00FEFA, 0xFCFF10EE, 0xFB060806, 0x1003F00A, 0xFB1512FA, 
    0x0E05F1FF, 0x00081410, 0x03F5F114, 0x0C161502, 0xF0000611, 0xF501090C, 0xFBF300EB, 0xF502F306, 
    0xF6060D10, 0xF0EB13F9, 0xFFF408F4, 0x0C05F713, 0x00030814, 0x02FDF5EF, 0x031514F9, 0x0F070A09, 
    0xF7131104, 0x06EB10F4, 0xF5F4F805, 0xF90C1503, 0x040B0C0E, 0xFFF5000C, 0x11EC06FF, 0x0D00EBED, 
    0x0B140E11, 0x06F5FB15, 0x1408F9F6, 0x09FFFC01, 0xF1F0ECFA, 0xEB12F107, 0xF50D0304, 0xF011FCEE, 
    0xF6F300F9, 0x0A110BF7, 0xFDEB0F03, 0xEB1212F4, 0x12EDEBFE, 0xF9F305ED, 0xEFF00AFA, 0x141413F6, 
    0x0BFD0D04, 0x08FD0614, 0x15ECF6F7, 0x000907F2, 0xEFFC09EB, 0x0C0503F5, 0x0204EF12, 0xF80F1112, 
    0xF3F30FF0, 0xF70FF406, 0xEBEBFAED, 0xEFFE110E, 0xEDFCF207, 0xFDF5FD07, 0x0BFE0304, 0xF41404EF, 
    0x0306FBF7, 0x02100A07, 0x0F03FB0A, 0x0E18FE02, 0x1A040B07, 0xF5F6141B, 0x07DBFDE3, 0xD804230F, 
    0xF5E8FF0C, 0x01EBF70D, 0xFFF0001E, 0xF807FE14, 0x24F90723, 0xF5F8021E, 0x16E610DB, 0xDC250200, 
    0xEFFD1C2B, 0xF6E80F0A, 0xF30A0F12, 0xD4F3F802, 0x0DFCF926, 0xE1E7F42C, 0x0BED03F5, 0x072C1AEF, 
    0xDDF4F827, 0xE2FE1717, 0xFD0D1A22, 0xDCFDF600, 0x0A00162D, 0xE605071E, 0x03F80F09, 0x1B1900FB, 
    0xE5020FED, 0x09E9FB1B, 0xFDD6070B, 0xDDF21405, 0x11EAF908, 0xE5E9100E, 0x02ED080D, 0x162004F1, 
    0xE6E80C05, 0xF1DE02FC, 0xEEEFE40A, 0xDC02F8E5, 0x2914F22D, 0xE9F50F10, 0x20EDFAEF, 0x220F1D04, 
    0xF6F1EEF4, 0xE3FBF513, 0xECE1E8FD, 0xE4FDFF05, 0x0EF70723, 0xF0EE0925, 0x14F5FCF9, 0xEE372CF8, 
    0xF5EEF2FA, 0xE3CD0018, 0xE1F5ED1A, 0xD607031D, 0xFEEE2335, 0xEFE7F136, 0x27E818F0, 0xF02A0403, 
    0xEAEAFB19, 0xF2CEEF2B, 0xDFEA081B, 0xD5050907, 0x0EE71C21, 0xF8040406, 0x1AE6F5E6, 0xDD23F518, 
    0xED16210E, 0xFDC9FB10, 0xE1FFFD26, 0xF5FDFF10, 0xF2FD2406, 0x090BE0F5, 0x080300EE, 0xE237131A, 
    0xF82511FD, 0x0EEF13F3, 0xEEFD0115, 0xEBF5F3FE, 0xFCFA0A27, 0xE6FCF217, 0xE702D2EB, 0x0FF12429, 
    0xF417E91D, 0x12FD3507, 0xD70E2404, 0xDB16F2FA, 0xECD40622, 0xD9E7F610, 0xE7DFE7F2, 0x080613FD, 
    0xF007DD17, 0x1EE92605, 0xD2000512, 0xEC0E03F9, 0x0AEFE91B, 0xCEE0EF00, 0x0EEA18F2, 0x14203007, 
    0xE7D01FFA, 0xEAD3F317, 0xFFE1F702, 0xF20C0EF0, 0x20F02109, 0xE9DA072A, 0x26FDF7E9, 0xFF160FF7, 
    0xE2060E1E, 0xECE21D25, 0xF7EFFC10, 0xEDE7F8E6, 0x1EDE1032, 0xDACF0815, 0x33F302EB, 0x14152217, 
    0xECFC1E0C, 0xD5D72231, 0xD6DB11FF, 0xF0080FF1, 0x21EE1E35, 0x01EE06FF, 0x10F20EDB, 0xF71F120A, 
    0xE50A1E08, 0xEDCA1303, 0xFAFAFA00, 0x0107EBE9, 0x1D060114, 0xDDE1F825, 0x02E904F3, 0x091B1502, 
    0xF609F802, 0xE5DE0A0F, 0xE900200D, 0xE3F8EFE0, 0x2C071021, 0xE007FA15, 0x06E50509, 0xFEFA070C, 
    0x03FA0EE8, 0xE7E00915, 0xE3FC0B1F, 0xE204ECF9, 0x0EE71C1D, 0xEEF216EC, 0x02FCEBFE, 0x110EF9F4, 
    0x0105FD01, 0x0511EE0C, 0xF2FC05F2, 0x1506F80C, 0xEEFB0B0F, 0x1107F5F6, 0xF80EF5F8, 0x09F7ECF3, 
    0xEC0CEA06, 0xEE15FD05, 0xF207F6FB, 0xEBF00D12, 0x1204FA04, 0xF6FD0BF5, 0xF1040AF4, 0x0102F6EB, 
    0x0FF00AF6, 0xF0ED150F, 0xEC160408, 0x05010B0E, 0xEDF0ED0D, 0x0B0D11F6, 0xFBFE0CEC, 0xF3F70E0C, 
    0x0A0806F8, 0x06EFF516, 0x0BEFF3EF, 0xF406F1F3, 0xFA08EBFC, 0x10F610FA, 0xFFEE08FE, 0x09F207EA, 
    0x130AF9F8, 0xFE0415F9, 0xFA04EC06, 0xFA15F114, 0xF712F8FE, 0xF203FE08, 0xFCF2F912, 0xF90E15F6, 
    0xF9110707, 0x100CF20A, 0x0FEFEE15, 0xEFF60402, 0xFDFC03F4, 0x02F50000, 0x0614FE11, 0xEFFB02F4, 
    0xECF7130C, 0x12FEF9F8, 0xEB1107F8, 0x0C150C11, 0xF2E6F1FF, 0x08F9F6F9, 0x040ED9D9, 0x191C1AEC, 
    0xF0F2F8EC, 0xFF22EAF1, 0xFF17FE0A, 0xDFF0000A, 0xF7101728, 0xE9F9F70D, 0x15F3ECF6, 0x0C2E2200, 
    0xD1E520EA, 0x0CF8EA01, 0xE806EA22, 0xD7EB0218, 0xFA0D102F, 0x00F21117, 0x01EF1EF4, 0x060CF9FB, 
    0xF1EE00F9, 0x00FFFD10, 0x06FAEF00, 0xEB1608F8, 0x07FD1520, 0xFAEAF41C, 0x0DCD1FD9, 0xF51E0405, 
    0xE9ED00FF, 0xE9FB170D, 0xE61E0509, 0xF10F0908, 0x23000F19, 0xE4DF011E, 0xF8E615DA, 0xFF221AEF, 
    0xE5FC0A06, 0xD7E40D14, 0xE0F3070F, 0xEC08FAFC, 0x13EB052A, 0xD9FDFB2C, 0x05DD03D6, 0xF62324D9, 
    0xCEF6D907, 0xDCE6061F, 0xC30A0D3A, 0xE40108EE, 0x3ADB1A23, 0xE6FB0A37, 0xE1D41EF3, 0x0F0F1CF2, 
    0xEBF3D416, 0xDBE70914, 0xDB052B1A, 0xDB14F2D4, 0x0FED1B14, 0xCE000B3A, 0xE5C801E9, 0x31131D05, 
    0xE4F9C4E3, 0xCCF41039, 0xE30E0E41, 0xC20D0BDA, 0x0CF1FF33, 0xD2EBF44A, 0xF0CD2B14, 0x421A1E03, 
    0xC4E9EAEB, 0xE70A2613, 0xED1F0334, 0xD4FCECB8, 0x22DFF838, 0xEF080A26, 0xE4B022F0, 0x2831FD0C, 
    0xD3FCFDE7, 0xE4FD3412, 0xCF0F1F3E, 0xD4F811D1, 0x04F61A12, 0xF817FB2B, 0xD1B7F3D8, 0x140C032A, 
    0xE0ECF5F5, 0xDAF90F08, 0xE9F2FE26, 0xD00C09E4, 0x15030227, 0xEF01E63B, 0x00BE13F9, 0xF511EB20, 
    0xDFEEFEE8, 0xE9EA140F, 0xF0ED062D, 0xD70E02EA, 0xF4092015, 0x040CE02F, 0x02DE0ADF, 0xD614E733, 
    0xE9F0FEC9, 0x13F01910, 0xF6D90D11, 0xC902FCF1, 0xE20A1C19, 0xE912E30E, 0x15E503D8, 0xED0A0DFF, 
    0xDD1908F6, 0x14F12203, 0xF2EA1FF3, 0xE21700F8, 0x170E1D1E, 0xFC0DF91B, 0x11E60FF7, 0x012106EB, 
    0xDEF3F005, 0x0A07220E, 0xEFE727F7, 0x02F602F4, 0x41F6331B, 0xEFF7EC00, 0x0E0A17E1, 0xF10900DE, 
    0xD80A1500, 0x02F6F7E6, 0xE4E42103, 0xE6FA03C9, 0x3C0E1825, 0xE3D7F007, 0x1E13F4DA, 0xFA341403, 
    0xE5F42B13, 0xDFD0E904, 0xECE300EC, 0xF3E814D5, 0x540A061D, 0xF9E70923, 0x2E01FDEA, 0xFB2D0AE4, 
    0xD4FD1FFB, 0xF0DD0728, 0xDDD6F6EC, 0xF6E9FCEE, 0x22FD0B0A, 0xD8EB0125, 0x37DD12FC, 0x2A2919F5, 
    0xEFF90702, 0xDACD0112, 0x07DDED03, 0xD80D0ADC, 0x2103F913, 0xFCDB0229, 0x3DE828F4, 0x2D310DED, 
    0xCBE604DD, 0xD3CE0713, 0xEBB90C0C, 0xEEEAF9E6, 0x2EFF0320, 0xEAFF0104, 0x05D2E8E2, 0x081613DF, 
    0xE0ED08FF, 0xDEC41505, 0xD8EBF4EE, 0xD70A10F6, 0x17F61810, 0x0904020B, 0x0E04F006, 0xFC05F7EF, 
    0xF00FE204, 0xF6F30718, 0xF3F81812, 0xE2F1EBE6, 0xF309FF15, 0x0904F001, 0x010AE8F7, 0xE203FA0A, 
    0xFE19D9F8, 0xE4F320F3, 0xDF02F91A, 0x0E050D0B, 0xF0ED010A, 0xEC0AF8F2, 0x09F90BFD, 0x0C0A1501, 
    0x0300EAFC, 0xFF0001F1, 0xFEF9EFEC, 0x09FAEDF6, 0xED0E02FC, 0xF2FD1314, 0xF5EF12F9, 0x02F70FF8, 
    0xF30DF402, 0x15FF11F5, 0xEEFBF7FC, 0x0A0FEC0C, 0xEF0BF20B, 0xFFFA1108, 0xF903F407, 0x030903F4, 
    0x030EFAED, 0x13F503FA, 0xF50E05FF, 0x0FFDEAEC, 0xF4EDEC02, 0x0FEBEB07, 0xFAEE0707, 0x0F04EC13, 
    0xF91004F2, 0x11F214FD, 0xF8F7FB08, 0x0CF5EE13, 0xFE010609, 0xEBF111F8, 0x07EE05FA, 0xF90AF014, 
    0xEBF0ED02, 0x011018FD, 0xF8F3F10F, 0x0410140B, 0x010E0F14, 0xE6DE03F6, 0xF509F0F3, 0x2D051EF1, 
    0xE716F4F7, 0x0504FEDE, 0xE3F6F71C, 0xF3170D1C, 0xE7E8F11B, 0xE9DFF61B, 0xF61400D0, 0xE9332409, 
    0xE3E918EB, 0xF3F81C27, 0xCBF7140A, 0xD101EB11, 0xECF40510, 0xEE10F6F5, 0x00ECFC1B, 0x100F001D, 
    0xEDEB02F0, 0x01F41503, 0xE60DE518, 0xE5EFF9D1, 0x160F0DEC, 0xE606EC16, 0x07E20F17, 0xF9FF0410, 
    0xCCEC1D17, 0xE3D62204, 0x021E151B, 0xD9FC06C7, 0x26E4FCF9, 0xB5FEED01, 0xECF3DE22, 0x1505EC04, 
    0xE2EF01F5, 0xDDE80E0C, 0xEAF70C12, 0xBFE714CB, 0x2CEEF904, 0xD814F90E, 0xEDD9EE09, 0x281E0532, 
    0xCAF8E817, 0xD8F928E8, 0xFC09F927, 0xCEE1FED6, 0x3F0F0EF7, 0xCDEE0020, 0xD8C3EC12, 0x13FB012D, 
    0xD1FDE103, 0xC2E13B07, 0xDE382A25, 0xCAD7ECCC, 0x15EC0C12, 0xDEF00934, 0xF3B2E606, 0x0B17011D, 
    0xDB01E5FE, 0xD7EF0D10, 0xD00E10F9, 0xB2D9F6DF, 0x18F82019, 0xC913250A, 0xDEC1F117, 0x17151E1B, 
    0xCCE8E6EE, 0xD4162D0E, 0xEE0E2025, 0xC1E5F2CC, 0x3B04FF0C, 0xD2242017, 0xC4B1C1FE, 0x1120EF49, 
    0xEB08FEFE, 0xEC0925FB, 0xE51E0634, 0xB4DC12EB, 0x32151514, 0xD30D2009, 0xD0B1D906, 0x0009FE1D, 
    0xC8F1EBF3, 0xEF013B0A, 0xBE182722, 0xA1F70608, 0x3CFC2535, 0xCC04070F, 0xD4D3EC04, 0x1421FE21, 
    0xCAE0E6F6, 0xE20B05F4, 0xE3221306, 0xAD1309E1, 0x25E0321C, 0xD7042002, 0xDDE2C9F7, 0x071F1BFB, 
    0xE9E1FCFE, 0x02EA16E3, 0xE10E1102, 0xBA0213F5, 0x39081C1A, 0xDF221A12, 0xEE02D705, 0xE71E0C16, 
    0xD4E3DFD7, 0x17E9FF07, 0xF6250A00, 0xD80BE9EA, 0x47F90604, 0x06F70FFD, 0x1E01FC0C, 0x191A19FF, 
    0xEDEA0CF8, 0x07FF1805, 0xD706F3F5, 0xDFEDEBD6, 0x2BF70F12, 0x04F51129, 0x1AE81707, 0x0F2CFEE4, 
    0xE6E9FBEC, 0x02F102EB, 0xF8EC0C0B, 0xEDF406C4, 0x5B152908, 0xE4F5100C, 0x0DF61AF3, 0xFD2B06D3, 
    0xC7DF06F0, 0xE2DB0DE6, 0x02FA18ED, 0x00E90CDE, 0x3CED1D0F, 0xDB0EFAFF, 0x18FEFE08, 0x0D2AE2DC, 
    0xDAD42112, 0xE1E3E9E8, 0x16EAFAEC, 0x19F0F4EB, 0x5B111EED, 0xEFD90113, 0xF9F22817, 0x0C12F7D7, 
    0xDAF713FA, 0xCAF4CBF4, 0x27FD0EDF, 0xFBD6F6F9, 0x4FF8FF0F, 0xE6DA08FA, 0xFDE034F0, 0x171ED3CA, 
    0xDB112329, 0xD1D3C50E, 0x16E20707, 0x09E7F2DC, 0x27FB1C17, 0xD4CF0D0E, 0x19CF2DD5, 0xF80DE4E8, 
    0xE019040A, 0xD0BCF805, 0x1BE2FF05, 0xD2E5F4D7, 0x18FC0B23, 0xE2C00E0B, 0x1C03FF08, 0x0D1A03DD, 
    0xE5F60DFE, 0xD2E8FF13, 0xEEF03102, 0xEA06EBED, 0x1B08081E, 0xF2021CE8, 0xFEE3FCF1, 0x0FE5E0E5, 
    0x0718F603, 0xE2FAF1F6, 0xF8090A11, 0x1006EE12, 0x1FEA0410, 0xF1F313F6, 0x10EFF30A, 0x23F9E2E3, 
    0xE5F8F5FC, 0xE809E715, 0x1C1F19F6, 0x17090C15, 0x12F3EE11, 0x0C0F010A, 0xFCF2070C, 0x0FEC00F1, 
    0xFDFCFAF9, 0x05151103, 0xF7EEEBF0, 0x0DEC010E, 0xEF0604F8, 0xFAF4F70E, 0x03010EF3, 0x07F3FCFB, 
    0x050C0CFA, 0x00FD0715, 0x0C1306EC, 0xFDFB0108, 0x00060612, 0x0A06EAF2, 0xFBE609FD, 0x00F8FC1A, 
    0xF30519EA, 0xEEFF1CFE, 0xF305E80D, 0xF103FB02, 0xF5100DF3, 0x1BFCEBFC, 0x08FEF903, 0xFDF8091B, 
    0xF3FE01F3, 0x11FA2206, 0x031CDFF2, 0x0AED05F9, 0xF3050B01, 0x181CFD03, 0x02F1EF16, 0x1D17131C, 
    0xE6F9FD03, 0xFBFF11FD, 0xFEF7DD11, 0xE2F0F9DA, 0x0D2BFEFE, 0x0B1ADB0F, 0x09DA05F4, 0x0513122D, 
    0x0DFFE0EE, 0xF5C1F719, 0x10EFFF1B, 0xF4FFF9D2, 0x17100804, 0x0126DA0B, 0xE8E1FD02, 0xF20D1347, 
    0xDEFB0DE7, 0x09FBED1B, 0xF3FBFC01, 0xE8CC0BC7, 0x0303FFE1, 0xC309E408, 0xE7DADE09, 0x11FF152F, 
    0x07F3EFDC, 0xF60A1205, 0xEA070310, 0xC1D2F8DC, 0x04FC0DF6, 0xD909F214, 0xE3E7E81F, 0x13F90021, 
    0xEEE506FC, 0x04DCFA04, 0xF51AFF17, 0xBAFEF3D0, 0x2C09F8E5, 0xD20CFE00, 0xDDD7F115, 0x090C0A37, 
    0xFFDBCEF0, 0xFFF31209, 0xF8000805, 0xD9F112D1, 0x04DEF3F4, 0xD501080E, 0xC8D4ED0D, 0x09FB1725, 
    0xF6F6DA1C, 0xE9FB2E1D, 0x091B06E1, 0xACDAFEEB, 0x1FFA100A, 0xDC1B1DF9, 0xE301E2FA, 0x0C0F0319, 
    0xDC00CA05, 0x02FE2901, 0xFB1B130B, 0xC2E2FD02, 0x2A0611FB, 0xD40D2E0D, 0xEC09C708, 0x0111122E, 
    0xF3EFD608, 0xF90E0DFD, 0xFF2100FF, 0xD1E405F8, 0x08070601, 0xDA1A1CFF, 0xCD05EA05, 0xF2F9001E, 
    0x0CF8F710, 0x0F0E1E0A, 0x12170EE4, 0xBCE90803, 0x16082AF3, 0xE32D000A, 0xEAEAEC13, 0x121B282B, 
    0x17F0F7FC, 0xF5FF120E, 0x0B18FCE2, 0xB6FAF4F3, 0x10F92303, 0xF72825EC, 0xDB0AD50B, 0x0B060819, 
    0xEEFE0812, 0x0F050304, 0x140919E1, 0xC9EF0313, 0x21F82019, 0xE4183FF9, 0xD3FDEC11, 0xF30F0714, 
    0x09DFED03, 0x2AE90EEC, 0x001B18E5, 0xD50D0419, 0x17141C16, 0x000F26F3, 0xFCF1E4F6, 0xFE1817E7, 
    0xF0E5FA1C, 0x24F01B04, 0x0B171CDC, 0xE900F20E, 0x3B093411, 0xF308390E, 0xE2FEED00, 0xF9070FDF, 
    0x06FD0322, 0x24EB08F0, 0x0B1E12C4, 0xE30D06EB, 0x310F0909, 0xF71423EF, 0x1104EFFC, 0x081AFFF4, 
    0xF8F70011, 0x22F3F5E7, 0x0917FFE2, 0x031310EA, 0x280A1714, 0xEE0A0A0E, 0x20E5F705, 0x1715F6D2, 
    0x07EFFA07, 0x14F6FCF2, 0xFE0AF5F8, 0x050EE9EC, 0x13F227FA, 0x06E3F40D, 0x24E61401, 0x1C1BF2C8, 
    0x040D05FC, 0xE6D70222, 0x221618E3, 0x05E5F3D8, 0x22F8021A, 0x0DDBFE07, 0xFFF30FF9, 0x0522F8CC, 
    0xFE130C07, 0xFDD6E708, 0x0916EBFB, 0xFB0A04DB, 0x34EC0BEC, 0x0CE1F1F7, 0xDFF320EB, 0x0C0FFCD4, 
    0xFA002302, 0xD1C3CC25, 0xFD0405F5, 0x03F2FFCE, 0x200310F4, 0xE3C6F806, 0xDAFD19EC, 0x0E12E3D8, 
    0x0B1F39F4, 0xD1ADC711, 0x17FEF7FF, 0xEFF00ED7, 0x25F91A0B, 0xE7B40E07, 0xFBFC241D, 0x2B15EAE3, 
    0xF9FC340E, 0xC0D8D2FE, 0x2AFCF808, 0xFAD20CF1, 0x1D1AF1E0, 0xDEDB16EA, 0xE21DFC1A, 0x1B08EBD0, 
    0xFEE1100B, 0xCBEAF3EF, 0x2EE81F1C, 0x03D603E6, 0x420BFFEE, 0xF5F12D02, 0xFF0F00F1, 0x0C28DAE5, 
    0xEDFD0D19, 0xEAEC15E9, 0x12F9E616, 0xFFF70909, 0x15F81729, 0x04D90229, 0x04E52D07, 0x0A2CF2E5, 
    0xF4F71FE6, 0xF4E1F604, 0x0CD9E819, 0xE00B16FB, 0x150C0918, 0xF81606F7, 0xF900FE06, 0x120212FB, 
    0xEE0CF8EB, 0x01F70012, 0xEAF8F30B, 0xF7FD09F9, 0xED040403, 0x07F511F9, 0xEDF90B11, 0x070E1208, 
    0x0E05ECFD, 0x0E16120D, 0xED05F9F3, 0x1000FAF7, 0xF5F20D10, 0xF5F7FDFE, 0x16E60100, 0xF209011D, 
    0x080B25E9, 0x10F91A22, 0xE9F1F6F7, 0xDF01F702, 0xF6FA15FF, 0x0A3109E6, 0x00D6DE0E, 0xF11AFB3D, 
    0x040B1EE3, 0x0EF118F3, 0xED11E01D, 0xDFD5F7DE, 0x0E20E8ED, 0x0121C70D, 0xFED9F31D, 0xFE09FE19, 
    0xEBEFF801, 0x19F7113E, 0x0611021C, 0xFF170BDD, 0x0EF7E2EE, 0x0233C7E8, 0x1FD3E821, 0x09FBF02C, 
    0xF4000AF1, 0x10F8FC1A, 0x1813E22B, 0x06E7ECCD, 0x1C29F1E2, 0x0A2BFFF7, 0xF7EEE22B, 0x050C1C2C, 
    0xF7F0E2EA, 0x0904E00A, 0x1023F018, 0xDFECFBE2, 0x1118E4EF, 0xEC091006, 0xF2F1FE15, 0x2AF31316, 
    0xFFE9EA1A, 0x0613FDF9, 0x2005DE13, 0xE2E70BD6, 0x1D02F6DF, 0xE30BFA1C, 0xF9F1EAFF, 0x1F031209, 
    0xFEE2D11A, 0x08FC0601, 0x2C1EFC07, 0xEC05E9FB, 0x22F406E4, 0xFB1103F0, 0xE61FF116, 0x14120A02, 
    0xEAF1C611, 0x0704E3F8, 0x2E230600, 0xC7F900F8, 0x20E6F1EE, 0xE5F00404, 0xF000FA25, 0x2802F02C, 
    0x1006D0FC, 0xFD0808E7, 0x0A0CFCF1, 0xDA0210FE, 0x02080C08, 0xF0F805EA, 0xE606F619, 0x11F9021E, 
    0x1EF5E7F1, 0x02FCF3FC, 0x2123F702, 0xCE0D0809, 0x04101B11, 0x051A0FF4, 0xCEF30724, 0xFBF5E80E, 
    0x0702E4F5, 0xEFFCF2F7, 0x28000EEB, 0xE6F8FBFA, 0x19FC1DFF, 0xFFFF1AF8, 0xD8EF0712, 0x1AFEF817, 
    0x20EA1304, 0xF10E0100, 0xFC09FE01, 0xC3160727, 0xFB19061E, 0x0F1913FE, 0xC3F220FE, 0x0B01FE17, 
    0x02F70E08, 0xE3101303, 0x150A18F1, 0xDC22FF11, 0x1AFB0106, 0xFE0D2708, 0xC7F11B0C, 0x0DF91114, 
    0xFF0CFA00, 0xE9DB0711, 0x0DFD0ADE, 0xD80A0127, 0x00161AFF, 0xF8181DFD, 0xCA01FF11, 0x03F802FC, 
    0x1A08F503, 0x1DE92BE3, 0xE8000DEE, 0xE31A100C, 0x2FF70504, 0xF90641FA, 0xED0AFB2B, 0x1C04FAD9, 
    0x2E08F7E8, 0x2CE61DFB, 0xFF0F11F1, 0xD220E809, 0x1510211F, 0xDAFB2F00, 0xF8F5FA1E, 0x0AF015DD, 
    0x17F50A0B, 0x27BC090F, 0xFB061ADB, 0xD408E9F1, 0x2C08240A, 0xF20130FD, 0xF2E8F818, 0x031104DF, 
    0x2A140211, 0xFCBA1911, 0x1A011BF6, 0xEA0CFBDF, 0x1EF0010F, 0xEFFE38F7, 0x0E06EC19, 0x050704DA, 
    0x1813191C, 0xFBC8F60E, 0xF61206DF, 0xEEEEFCED, 0x06F82AF9, 0xEE001A03, 0xFF0203D8, 0xF323FFBE, 
    0x1A1F1508, 0x10D200FC, 0x03130EE7, 0x11F8FFED, 0xFAFE0515, 0x0DEB00F9, 0xDB1EEED0, 0x0309F6B9, 
    0x14211E00, 0x1ACEE414, 0x070E14E9, 0x0B1312FD, 0x0A010FF5, 0xEAE1D10F, 0xD0FDF0D9, 0x080DEFD3, 
    0x072B28EC, 0x00CFD908, 0x151006E8, 0xF80F08FB, 0x11F0F9E2, 0xEEBBE4F6, 0xB8FFFCED, 0x1631FADA, 
    0xE5063DF7, 0xDFD2E520, 0x07F4F7F1, 0x0DFFEDE4, 0x28F318FA, 0xE7DC1913, 0xE71A10FE, 0x2D15E7E3, 
    0xF7F51A17, 0xE1E8F806, 0x29F9F7E6, 0xFFF01507, 0x27200215, 0xDAE83201, 0xEF171B13, 0x2237E1EF, 
    0xEBE632F0, 0x03F4E4FA, 0x0AE4F3F3, 0x12F50515, 0x2021F117, 0xF4DEF52A, 0xECF3180F, 0x132BE90A, 
    0xE1FE09FD, 0xE6DFDF01, 0x1DDD09F2, 0x03F3FFF1, 0x110DE624, 0x13020C04, 0x15F5F60C, 0x140107FE, 
    0xED05F806, 0xED0EFA07, 0xF305FD06, 0x0A0AFBFD, 0xF1150DEC, 0xE3080406, 0xF0FAE40D, 0x1C080A0A, 
    0xFAFBFCFE, 0xF4E60F01, 0xF322E014, 0xEA140CE6, 0x230317FC, 0x0E0CFDF1, 0xE407EEF7, 0x2E0B2CEB, 
    0xDDEBFFF5, 0xE011E6E4, 0x05FAEB2B, 0x2221040F, 0xFB15F5FD, 0x0C1101F4, 0xF0E8F211, 0x09000831, 
    0xEBF827DF, 0x15F80817, 0x06FEF629, 0xF3FB07C9, 0xFC1EF4DC, 0xD70BEE05, 0xEFFEF41B, 0x241A042F, 
    0x11DD1606, 0x1FE4EE33, 0xFF0CFE0F, 0x081204EA, 0x1BF010DE, 0xF021E8F7, 0xF801EC15, 0x24040818, 
    0x0FF6F00B, 0x0C13FBF7, 0x1D1AF6EE, 0x15130BF1, 0x22EAFACA, 0x171CEC0A, 0x04F3CD18, 0x28140C34, 
    0x09F7F114, 0x0F13E2E9, 0x1B06F813, 0xF01210DF, 0x02FFEDEB, 0xFA11E607, 0xE5F9EAF9, 0x0312DD16, 
    0x04E1D71C, 0x1110F701, 0x260F030D, 0xF00FEDED, 0x06E709EE, 0x1003F218, 0x08FC010F, 0x11FCEE04, 
    0xFBE4E934, 0xED0BF3E7, 0x1A22EB21, 0xDE1E00F9, 0x1C08FFE3, 0xF6FBF7FD, 0xF400FA03, 0x04F1E904, 
    0xEFEECE07, 0x03E8F1DA, 0x1B0E0D0E, 0x0509FFE2, 0x0113F5FB, 0xF7F20906, 0xEF17070D, 0x2A08D62B, 
    0xF704CAF8, 0xFAF207F1, 0x1221EC24, 0xDD0CEE14, 0x16151303, 0x0DEDF9EA, 0xDDF91EF2, 0x1D07E025, 
    0x0D13EEFC, 0xE00DE8E9, 0x131BFF2B, 0xD4100022, 0xF7090002, 0x170B1A03, 0xE2072205, 0x1F03F50B, 
    0x0517E1F5, 0xD7F9F4DF, 0x0005F309, 0xEF26EA24, 0x1B120D0E, 0x11EB03E9, 0xF7E31F20, 0x1E1CD931, 
    0x00E6EDE9, 0xE4EA07EB, 0xF11907FD, 0xEC280527, 0x01310415, 0xFE1313F7, 0x10E31423, 0x1D18FF17, 
    0x10FF04DF, 0xE00907F5, 0xF314FC07, 0xFA3D1016, 0x082F0309, 0x18092EFC, 0xFEFA1E21, 0x2515EE13, 
    0xF40507E8, 0xC8DCF6F4, 0x0C2010E7, 0xE136EE0E, 0x13241628, 0x19F53CF3, 0x24F52526, 0x040BF90F, 
    0x05F5EDCC, 0xE8E31C0A, 0x0721ED02, 0xE4290221, 0x13160B12, 0x0DF13D0B, 0x1A0B0528, 0x2C1202F5, 
    0x020705CA, 0x11E30CE3, 0x031A07E8, 0xF60AEEFE, 0x03280423, 0x1D0C30E8, 0x2C131D0C, 0x150A05F7, 
    0x1D0B05C9, 0x0ECA1CE7, 0xFB220404, 0xF005F017, 0x1A15F218, 0x02F039DF, 0x11FF1109, 0x000507E4, 
    0x07101FF7, 0x04D2F7E4, 0x0209FFFB, 0x131F0FF6, 0x06101B09, 0x1A082BEA, 0x1302EBF5, 0xFD28F4C5, 
    0x260712E7, 0x1CE813FB, 0x050308F3, 0x0801ECF8, 0xFD1605F9, 0x09132213, 0xF503E6FE, 0x0B0B07D3, 
    0x17FD1AE0, 0x1ADE06F7, 0xE808F6FC, 0x150B0A14, 0x0FF3130C, 0x02EB09FC, 0xDF210D01, 0xEB040FBD, 
    0x141507FE, 0x00F605F3, 0xF60EFDC7, 0x03F90304, 0xF8E613E6, 0xF4FD14F9, 0xC00E0603, 0x0D1DF2BD, 
    0x10043620, 0x0DEFDBFC, 0x12ED04D1, 0x21F8EEEF, 0xF3EF20EA, 0xDBD6F606, 0xC71E0ED5, 0x1418DAEE, 
    0xF3141C29, 0xFDFDEFF8, 0x1EF431D5, 0x070EF1FA, 0x0F1813D7, 0xD2E92508, 0xD03D19FC, 0x0312D7EE, 
    0xFF081827, 0xF100FEF4, 0x30E528CE, 0x06F0FD1D, 0x0D13190F, 0xEFDCF3F9, 0xF63109F9, 0xFEF6CEFD, 
    0x1407350B, 0x0129CDF7, 0x1EEB16CF, 0x16E20C29, 0x2F010FEA, 0xFAE10105, 0x14180B0D, 0x0009D2FB, 
    0xE0F510F3, 0xE602FE15, 0xE8061702, 0xF70E0B05, 0x07FE11FD, 0xFE0814FF, 0xEEEA0211, 0xEFF0F614, 
    0xFBFA0DF2, 0x01FDF5F2, 0x09080FF4, 0xFBEFFBF7, 0x0E0506EB, 0x0F2A2DF5, 0x1200E7EE, 0x32232621, 
    0xCAFED812, 0xF2F533CD, 0xEB0BD233, 0x12EEF3E5, 0x0E03FFE5, 0x0218FE1B, 0x0810EAED, 0x34200DFE, 
    0xEAEF1612, 0xE617FFF5, 0x2712D434, 0x090A16F5, 0x0A06E0D3, 0x1C36DFEF, 0x04FB030D, 0x2E012F1D, 
    0xEDC92005, 0x3B151AEC, 0x05FF0129, 0x110C11DE, 0x1006E1CC, 0xEF1EDF30, 0xCE08DF17, 0x17F7EF24, 
    0x17B9FC09, 0x10041516, 0x0A270F17, 0xD203F8C2, 0xFBEDDBE7, 0xE415F1F4, 0xE228CB35, 0x27FB110B, 
    0x18D0E228, 0x0F040904, 0x0C09FD06, 0xFD0F11EF, 0x15E6F8E4, 0x14100DFB, 0xF411D50D, 0x35F0F506, 
    0x0EFBDC17, 0xF216FCFA, 0x261FEC2E, 0xFB21EFE1, 0x1EEDF0E4, 0x1E0D1012, 0xDFF8F2F1, 0x1BEAF709, 
    0x0708D916, 0x05F9E3E2, 0x1D1DF116, 0xF707FA05, 0x1BFAF300, 0x0CF716F9, 0xE02708F9, 0x0FF9CAF7, 
    0x15F0D31E, 0x01F5F2F9, 0x171EF31C, 0x12FDFB0B, 0xF90410F0, 0x14F3FE10, 0xFD0619F3, 0x2CFEDE13, 
    0x15F2C51C, 0xF6E1E7DF, 0x1933F917, 0xFC010407, 0x121B13F9, 0x24E90AEE, 0xEA1D29F5, 0x0C0DF00D, 
    0xFCFEE30C, 0xDFE9E8E6, 0x1922E71D, 0x0C12060E, 0x0F040924, 0x19EC09F1, 0x021008F1, 0x1EFBE10D, 
    0xFEFBDEF3, 0xEDFF0401, 0x130FEE0E, 0x0715F226, 0x0720F418, 0x0DFA06F3, 0x22FB1612, 0x1501D412, 
    0xEF02DDF8, 0xDDE7EBE6, 0x0D200226, 0xF01C0A22, 0x181D0C20, 0x280F18FE, 0x11E62B25, 0x31FBED18, 
    0x0507DCFC, 0xBB0BF009, 0xF219001B, 0x1630E828, 0xF207FD08, 0x1CF12EF8, 0x38EF0C18, 0x30EEE80C, 
    0x0E08EECF, 0xC801F1FD, 0xFC160A17, 0x0A1B1126, 0xEC280A00, 0x17F537F6, 0x35FC3527, 0x18F2F80F, 
    0x14E8F6DE, 0xC60B0AF0, 0x031A060A, 0xFD260507, 0x013E060C, 0x150842F8, 0x2BFA160D, 0x17040704, 
    0x260716C4, 0xEBECFEE8, 0xEB23F8EE, 0x172A0312, 0x122F0C0D, 0x240E33E7, 0x24222235, 0x241F0DEE, 
    0xFE0120E8, 0x12FE01E2, 0x0537F4EE, 0x1A0FEA19, 0xFF1A0E16, 0x171334F9, 0x251FF814, 0x300D0EF7, 
    0x210C23EB, 0xFBF218DD, 0xFE26EDE9, 0x0E12E910, 0x0A120225, 0x0E143DFB, 0x191AF810, 0xFE2825F3, 
    0x250512EE, 0x0AFA0C01, 0x1135DEEA, 0x2325FAF9, 0x07211208, 0x16F910F1, 0x0116F3F7, 0x15030CCD, 
    0xFF140CEA, 0x06120EF3, 0xF716E7F4, 0x26F1020F, 0xFA1A1807, 0xFE0915FA, 0x0C14F20A, 0x0AFA19B4, 
    0x180925ED, 0xF4252102, 0x1400F5DA, 0x1901F905, 0x05ED0807, 0xF9011BFD, 0xEC030F04, 0xFD1410C2, 
    0x23191DF5, 0xF4201CED, 0x271BFFED, 0x0BFEF50D, 0xE0ED1305, 0xF0F30DFE, 0xDC090116, 0x00FF0BCE, 
    0x28F32101, 0xEA12F8ED, 0x16EAF1E5, 0x0708ECFE, 0xF70607EA, 0xD9C60001, 0xB40506F4, 0x0B00D6CB, 
    0x07171310, 0xFD02D808, 0x1BD0F0CB, 0x0AE9EFFA, 0x15F31203, 0xD7BE14E7, 0xCE4F19EA, 0x180ADFC3, 
    0x0B1D191D, 0xD505EFE3, 0x27CE24E1, 0x2BE2FD18, 0x270D2B11, 0xE5EEF0F9, 0xEB2CEEE5, 0xF207E3FC, 
    0x22EA1AFB, 0xF700FA15, 0x2A041BE3, 0x290B05FF, 0x1A0DF3FA, 0xE6E5FE0F, 0xE139F009, 0x1C25D7E1, 
    0xE91011FA, 0xF705D60B, 0x10F815EC, 0x13FBF720, 0x021AFC13, 0xF9FCF506, 0xF4FC0DED, 0xFE1701EE, 
    0x0B08F110, 0x101212F2, 0xEDF1EE00, 0xEF141210, 0xF7FD0A14, 0x0D12E1F4, 0x2A14E9EF, 0x110E0CFD, 
    0xD822DF1E, 0xF91E19EB, 0xEF27E616, 0xFEFAF0FC, 0x21F7D2E3, 0x17FBF5EF, 0x07250614, 0x21FE1E19, 
    0xFEDE0629, 0x050CE803, 0x2610011F, 0x1F0912FA, 0x28FDFCED, 0x2307F5F9, 0xF513EC02, 0x13210EFE, 
    0x07D1132D, 0x270B21EC, 0x1E010518, 0x1CF800DE, 0xFC04FCDA, 0xFC36EF31, 0x02E5E926, 0x00041330, 
    0xE5D8100C, 0x29F22400, 0x1A20E91C, 0xEFFDFED7, 0x07E3D7E9, 0x1813F818, 0x0320E820, 0x0705EF16, 
    0x1EE7ED18, 0x1FE90501, 0x2613FC23, 0x0A010FF7, 0x17F10AEA, 0x071C060C, 0xEC0E11F3, 0x0F04010A, 
    0xFB03D609, 0x09E514F9, 0x1FF9F206, 0x17F81100, 0x040B0809, 0x1925FF14, 0xFCF512EE, 0x27ECE5EC, 
    0x0BE7E131, 0xF9E5F3E1, 0x2D02FB0F, 0x010613FC, 0x0DFE02F8, 0x230725FA, 0x010A1B04, 0x2B09F6E6, 
    0xFCFCC51D, 0xF6F7F5E2, 0x1225F515, 0x15090C21, 0xF91B18F5, 0x0B0E1FF6, 0x02FD21ED, 0x18FBEBFA, 
    0x0D09DB1E, 0x00DA0A03, 0x1E2AEE2E, 0x1C0A030D, 0xF7281A02, 0x13000518, 0xF0F8170D, 0x0C12EF06, 
    0xFFFCE017, 0xE8FCF7EA, 0x0724F930, 0x0E001211, 0xF51EF818, 0x1CE60A0F, 0xF00B1D08, 0x28F4DCE3, 
    0xED03D813, 0xE3F001E2, 0x0A270021, 0x06180C06, 0x030BFC03, 0x240520F9, 0x0AFA1A0B, 0x2106DBF7, 
    0xF80D02F7, 0xCDEEF2F1, 0x0413FE26, 0x1422FB2B, 0xFA02FC0D, 0x11F30215, 0x0BE10A14, 0x251BEB16, 
    0x2209FAFB, 0xE717F1ED, 0x0927FC2F, 0xFD22EA25, 0xFC1D121C, 0x16150A0C, 0x1BDAFB15, 0x180FF316, 
    0x03F90FE4, 0xDE160716, 0xEF28FC18, 0x0D350B16, 0x0314FF1F, 0x15032809, 0x2FEC0228, 0x161B1331, 
    0x15050AE8, 0xE12A2102, 0x0B2CF60C, 0x0A310421, 0x00260525, 0x0CFA310D, 0x2FF6FD20, 0x2B170415, 
    0x10F807E6, 0x103E1BF9, 0x102C04F5, 0x1E25E91B, 0xED17EC11, 0x24FA4317, 0x2C0FFF08, 0x021B1921, 
    0x2D0B1BE3, 0x0D311CF6, 0x0023EA04, 0x1306FE18, 0xF215F627, 0x1E032F07, 0x1A100E03, 0x1816130D, 
    0x1DF61204, 0x11461EF8, 0x1A32D4FC, 0x23FE08F5, 0x0129060F, 0x0E1049FA, 0x0501172E, 0x20F907E6, 
    0x170D1CF5, 0x1A281AF3, 0x1424EDF0, 0x24FB0807, 0xF00B090C, 0x241522F2, 0xF6160A1C, 0x1B0A06EF, 
    0x0A031A01, 0x102E23E8, 0x0014FAE8, 0x100FFDFF, 0x10F6EC13, 0x1E1514FC, 0x0605FE24, 0x1EF503D5, 
    0x1B042E0C, 0x091C080B, 0x0D1A0600, 0x22E2F0F7, 0xF5FF0716, 0x070327EE, 0xF4FB0D1A, 0x04F2EEB4, 
    0x2114180C, 0xD51A24FF, 0x1E00E5FD, 0x21E6EEEA, 0x0306EB05, 0xEFE633FC, 0xE50AFC00, 0x06FE02A1, 
    0x23252731, 0xE70D20DB, 0x300D0802, 0x2D051113, 0x07F40D0E, 0xFCAB19E1, 0xC30B19E0, 0x1001DDA3, 
    0x30094343, 0xCC2ACDD7, 0x3CDFFBD6, 0x3FF1F62D, 0x020E1300, 0xF9C10BC5, 0xB821FAE1, 0xE9F8B8D4, 
    0x1C033822, 0xFC1ADDE0, 0x24E303BE, 0x38F40821, 0x071F0ED3, 0xF8EB09FA, 0xCF3005FE, 0xD3E8DA04, 
    0x161E1215, 0x030AF0F3, 0x320806EC, 0x3EEFEB20, 0xF52028E4, 0xF1E228DE, 0xE519FFD1, 0xE905EF02, 
    0x0127F121, 0xF31DFCD9, 0x0215F0F5, 0x1AF90C13, 0xF312260C, 0x1013FDED, 0xF006EC06, 0xF90FF402, 
    0x010AF4F3, 0xF4F00A02, 0x02F9EB01, 0x060BF4E8, 0x09FCECE9, 0x1F09F8F2, 0x2E19EFE4, 0x16283016, 
    0xEA1DEB22, 0xFE2908FC, 0xFF15D834, 0x1D1308F3, 0x0D0BEDD9, 0x0107F410, 0x0445EAF6, 0x0308FE20, 
    0x15F4E92B, 0x0EFB21F2, 0xF9FF0F11, 0xFA0EEEF4, 0xFC02E906, 0x222A2107, 0x0D0904F8, 0x1D012D0A, 
    0x0BFEF92B, 0xF8F51C02, 0x06DAE228, 0x14FF13E0, 0x080AFEF8, 0xFC39FB14, 0xDFE7E609, 0x1E07261C, 
    0xDCD7E92C, 0x05F035E0, 0xEBF2F91C, 0x0020EDC7, 0x1906F6F8, 0x1C040003, 0x0AF5021A, 0x03E22300, 
    0x1700E827, 0x05C716E9, 0x011CF11D, 0x1E181307, 0xF007F4E7, 0x2F1521F1, 0x04F10AED, 0x1A0214FA, 
    0xFCFDCB1D, 0xEAD512D6, 0x0B0F070E, 0x0302E905, 0xFF0D021C, 0x211828EF, 0xEA0C24FC, 0x1B150CD8, 
    0x000FCB0A, 0xF0D1F6EE, 0x1306EC13, 0xFD0DF433, 0xFC2710F8, 0x260100FB, 0xF4FC28FF, 0x1215FAD0, 
    0xEE0ADB0D, 0x0CE6FFE8, 0x1009F91F, 0x09FC0020, 0xFA330D01, 0x1402F9F8, 0xDD132710, 0x0CF20BBD, 
    0xFA17D81C, 0xFFDFF7F7, 0x0F080318, 0x0719F82A, 0x141BF513, 0x0DF30DF0, 0xFA1127ED, 0x1A0902C5, 
    0x0C11D5FC, 0xEEEFE70E, 0x24FBF921, 0x000E122C, 0xFB0FFD0D, 0x1CFB15E8, 0xEB172AE7, 0x1107EDC2, 
    0x0E1C0117, 0xD9F9D7EE, 0x05070F28, 0x31FDEC22, 0xF7082C08, 0x13FDF811, 0xF7F809E9, 0x061908E3, 
    0x12140D10, 0xF010F3DD, 0x1914041B, 0x2A110F1F, 0x09062210, 0x190BFFFE, 0xEDF9FB01, 0x18160006, 
    0xFB00200C, 0xF121DBF8, 0xF1F80D2F, 0x0C09E91F, 0xFCF40405, 0x2B07F6F3, 0x0AE2DF0F, 0x0D14283C, 
    0xF12221EA, 0xCB3420FB, 0x060BF51D, 0x0919F332, 0x03020807, 0x2D16FA0F, 0x23E0EB1B, 0xF3242361, 
    0x11F62EDE, 0xF92B1D23, 0xEC2B0106, 0x2E0CFB0B, 0xDD1CFFFF, 0x23210EEE, 0x26CE0223, 0x1D07144A, 
    0x2DF2F6EA, 0x27352CFE, 0xFF300206, 0x1A1C0CF9, 0xDE10E8FF, 0x23151C15, 0x01C30016, 0x09152630, 
    0x1213FC14, 0x155627F3, 0x0B12E3F9, 0x20F7F3F7, 0xED13E2FB, 0x22130FE5, 0x0ECEF924, 0x05F70E1C, 
    0x28FF1614, 0x24440D00, 0x081AF309, 0x1B0E120A, 0xE901CFFF, 0x26161E0A, 0xF5DA1331, 0x1FEE2D06, 
    0x21F11520, 0xFD2516DA, 0x14060405, 0x10F7F8FC, 0xFFFAEF17, 0x16140E1C, 0xF9DF0B39, 0x1A0F09D2, 
    0x28022020, 0x072B28FF, 0x150CE200, 0x1C02F5E3, 0x180AD91D, 0x01F82908, 0xE7F4FC31, 0x00ED12BA, 
    0x00F4001B, 0x032D0DE8, 0x150A0504, 0x09E30DE6, 0x1CFBF904, 0x06061CE0, 0xF9EEEB2D, 0x0A050FCB, 
    0x00020314, 0xC41B1BD3, 0x1BF70103, 0x1B08E904, 0xF2EFEFEF, 0x11D92FED, 0xDAFE021C, 0x06F909AB, 
    0x0A0F2421, 0xCA0B0FDD, 0x2ED8F71B, 0x20F6F50F, 0x11F7ED1A, 0xECC53BBD, 0xE4E704F0, 0xE80FF5BE, 
    0x1F1A4E29, 0xD537D6BD, 0x2DC11210, 0x26F2F030, 0x211A1D2F, 0xE7C533C2, 0xCF0DE1EB, 0xDB25AADA, 
    0x282E213C, 0xFE2FE4B0, 0x2AE7EDE7, 0x23F3051B, 0x2F313BF5, 0xFFFC1FF3, 0xD819E8E1, 0xE804CCFF, 
    0x192B312B, 0x010DE3DA, 0x27E711E9, 0x03ED0E1B, 0x162825E5, 0x0913EEDB, 0x212CF2DE, 0x2820D9DF, 
    0xED0922EB, 0xF51CFCFA, 0xF214E3EB, 0x200407F5, 0x1016F4D6, 0x04F8F306, 0xF8FC09F5, 0xF1F40D1A, 
    0xFBF5041A, 0xF7F1100C, 0x1E02E80D, 0x0319F304, 0x14F40101, 0x1EFFFAFD, 0x2109FCFF, 0x011F1808, 
    0x06241319, 0x1720000A, 0xFC00F70B, 0x090704F9, 0xF7FEF1FF, 0x1EFFFB04, 0x1426E2EA, 0x070427FB, 
    0x040CF915, 0x0516FFF9, 0x0718F7FD, 0x1C24F705, 0x11F5E3FB, 0x081CF007, 0xF803DD04, 0x2D10101F, 
    0xF0E2E509, 0x020107E7, 0x02FB071E, 0xF21605FD, 0x090FEDE5, 0xFF191C22, 0x0B0DEAFC, 0xFC0A20EF, 
    0xECE0DD22, 0xF9D203EE, 0xFADC100B, 0xF903F207, 0xF90AFBF3, 0x1A0E08FF, 0x04F51505, 0x06E90BF2, 
    0xF10ED416, 0xF3E80BF1, 0xEE111121, 0x0324F509, 0xE9060B03, 0x231106FC, 0x07D62503, 0x02EC0FE3, 
    0x1BFABB16, 0xE2F20603, 0xEFFD1019, 0x17F2F419, 0xFA0C2304, 0x05E71205, 0xDEFD10EB, 0x22F903B9, 
    0x0C1DAE0A, 0xFBFA0CF8, 0x02FCFB22, 0x2107022C, 0xFB23FF21, 0x0DF600E5, 0xEAFF14E0, 0x060903A5, 
    0x1125CA11, 0xF3D4F0F7, 0x1302030E, 0x180A1124, 0x13111214, 0x28E4FFEF, 0xFA0426F7, 0x051101AF, 
    0x210BDC15, 0x01D703ED, 0x23FA0223, 0x17F8E82B, 0x121C1816, 0x2EFF0B05, 0x07F815DB, 0x090C1FBF, 
    0x1719E51F, 0xE208D5FB, 0x26E11118, 0x1907E92D, 0x0EFC22F9, 0x17FEFAEC, 0xE61322EE, 0xF8FE1AE9, 
    0x270F1114, 0xE1F8BBF0, 0x14F01A24, 0x14240411, 0x0AFB1C03, 0x20FA0D00, 0xF50102D5, 0xF70325FF, 
    0x160F1D27, 0x02FFC900, 0x17D208FD, 0x291FFF29, 0xF5F31AE9, 0x040FFBFF, 0x00F6DCE5, 0xFB32380B, 
    0x121E4106, 0x0125DED6, 0xF7CDFE21, 0x0A13FC3A, 0xFBE720E7, 0x1B11FAFB, 0x14F4D0E8, 0x0033262A, 
    0xE92A410A, 0xD72F2203, 0xF7E5FAFF, 0xF6DE0F36, 0xFDF920E7, 0x1B2EC3EE, 0x11D4F5DC, 0xF3280431, 
    0xF9043EF0, 0x06262110, 0xDEFBE411, 0x13FBEF21, 0xE601EEEC, 0x2309D5F8, 0x1CDBDBF0, 0x060E0B43, 
    0x0EF31F0A, 0x2D381BF3, 0xE3110018, 0x08FFF5FB, 0xF70CDAFA, 0x2C0FE712, 0x06BAE8FC, 0x1300FD3E, 
    0x23E51103, 0x1B2D1607, 0xF925FB03, 0x0209F3FD, 0xFA02CDEF, 0x1A160108, 0x09CB0510, 0x20061620, 
    0x13D8F80A, 0x1B472F00, 0x20F8FD15, 0x1211EFFC, 0xECF4C607, 0x281F1F0D, 0x10CF0222, 0x01F60FFE, 
    0x2BECF22D, 0x033C27FC, 0x1901EC0E, 0x01F1F0FD, 0xE814D301, 0x300320F8, 0xF0DBFD34, 0x27E719DC, 
    0x08F6ED27, 0xE41F1CEB, 0x22E6EFFA, 0x03E80B03, 0xFF06CEFF, 0x1D0322FF, 0xF4DFFD17, 0x10041EBF, 
    0x1FF7E421, 0xD22312DD, 0x25E8EA16, 0x1A0D0502, 0x0FFFD7F2, 0x0FD91DFA, 0xECF00D19, 0x28F809B3, 
    0x12FA0F27, 0xD2160ACF, 0x1ED9F928, 0x04EEF8FF, 0xE80FC800, 0x0AD852D4, 0xE7C51401, 0xE9FCFCBC, 
    0x0F101D2C, 0xC31DFBE5, 0x10D9FE12, 0xE506FB09, 0x1314EF2C, 0xCCB135C9, 0xFFC5F6E7, 0xE73FE1AE, 
    0x17285B21, 0xC737B6BA, 0x0AD21212, 0xFBF7F025, 0x301D0611, 0xC9DA32C2, 0x000CDDF3, 0x0513D507, 
    0x0B3A5419, 0x0839DBCE, 0x07DE08D8, 0x21CDEC32, 0x34471CD4, 0xDEF50CD5, 0xE4F7C2C1, 0x0708C2F3, 
    0xF2482231, 0xF146F2E4, 0x12EE10EB, 0x1002083D, 0x321C15C9, 0x031E05D9, 0x0E10DBDC, 0x0B14F126, 
    0xE5140B11, 0x150B03D3, 0x0E07D5F5, 0x1AF30320, 0x111BFBDA, 0x00F3D7F6, 0xF9FEF3FE, 0xF1EEF6F9, 
    0xF5040C0B, 0xFEF5F5EE, 0xF511ECFB, 0xF80E08EF, 0x1309EC04, 0x0A1102E8, 0xF932E5F2, 0x1614120F, 
    0xF20AEA13, 0x031C0BF4, 0x1D0CF317, 0x180310EF, 0x21EFDEE2, 0x150BDED7, 0x171FE1D2, 0x30261C12, 
    0xE9F8DA0E, 0xEB2108CE, 0x0F01DF04, 0x3318FC19, 0x13E0F8DB, 0x23FF0100, 0xF6D1D10A, 0x330E1C09, 
    0xF7CCF400, 0xF2FB1DFB, 0x0DE7E4EF, 0x12FDEBF6, 0x1B0FDFEF, 0x230917FC, 0xEEE9FFD7, 0x030A1DDE, 
    0xEC0BF421, 0xEBEF1CDF, 0x0FDEFFE9, 0x1E07000C, 0x072206FB, 0x16E803F6, 0xE4E800F0, 0xDF0501BE, 
    0x011BD9FB, 0xEDEDF9E1, 0x0BF90504, 0x2EF50714, 0xF2F61208, 0x1BEA01E7, 0xDB0211EC, 0x03EC17B3, 
    0xF810A8F6, 0x02E0F9E4, 0x15FD0AFF, 0x2D0C0E28, 0xFD19FC0B, 0x0FDCEAFE, 0xFFFC32E0, 0x161518B2, 
    0x110EC424, 0x05D8F00B, 0x15D01400, 0x16F8EB26, 0xE1021307, 0x2CE5F4EB, 0x08F12AEC, 0x0F281EC8, 
    0x0D11C618, 0xFDE1FD16, 0x16E6F5EB, 0x3CFB0B05, 0xFF1F0C1F, 0x17D5E9F7, 0xFA151D02, 0x09212CCB, 
    0x260DC722, 0xF3F7CE0A, 0x1DDDEEE8, 0x350D0A0C, 0x03082C0A, 0x34EEF7F9, 0xFBF610DB, 0xF23B16F6, 
    0x21F90621, 0xEDF1D610, 0x39DBF2EF, 0x3B1C0416, 0xEC0827EB, 0x170004FD, 0x070801F5, 0x10202FED, 
    0x06F12C1B, 0xFAF6D6F5, 0x16D6FEEB, 0x29050712, 0xF8F623E4, 0x06FDEDF9, 0xDF0907E4, 0xFA2D2E11, 
    0x1EE9361F, 0x0CF9C800, 0x2EC8EBE2, 0x27F9F715, 0x19E71FE2, 0xF7111203, 0xF2E7D7D0, 0x09422627, 
    0x03FB580D, 0xE50DEFD7, 0xFDA9DFF4, 0x0CD2F736, 0x18F033E7, 0x101EEEE2, 0x28F3D2DC, 0xFF340218, 
    0xF60C4DE3, 0xFB0E0FF0, 0xE694DDED, 0xF5A00414, 0x00012904, 0x1F19BDD6, 0x050E01DD, 0xD63BF020, 
    0xF70935E7, 0x12F11B09, 0xF5D6E2E7, 0x18CE1111, 0x0A0711E7, 0x1B07CBFF, 0x0F02FA08, 0xF21CDB17, 
    0x11FE3607, 0x25EDFE09, 0x0E06E41F, 0x10E6EFDC, 0x180EF2F7, 0x1A16D2EC, 0x0BF51B0B, 0x0617F513, 
    0x14DB25FC, 0xFDF50F04, 0x171DD502, 0x08070106, 0xFE0EE5F6, 0x1D1FF700, 0x1AD6F323, 0xFD1304FD, 
    0x06DE0F0A, 0x130C04E2, 0xFCF8FA1B, 0x040705F7, 0x0F21E2F8, 0x0F15FA0A, 0x1FDFF41D, 0xFFE516E4, 
    0x23EEF70D, 0xF1271FFE, 0x20EEF40A, 0xEC0BFEE7, 0xFC0AD602, 0x2EF9FC05, 0x0DDDF51B, 0x21FB2BCE, 
    0x02CBFCF7, 0xE3070FF7, 0x07F8010F, 0xF8F1FDED, 0xEC04DE11, 0x36C40913, 0x15E70700, 0x0BF328AA, 
    0x1008D009, 0xCD0D1D09, 0xF9EAF106, 0xE7F8F40D, 0x04FCBF1B, 0x34CC1004, 0xDCD2F4F7, 0xFB042BC5, 
    0xF9FECB17, 0xCBF308FA, 0x15E9F419, 0x0200FA1E, 0xEFEADA23, 0x10C416CF, 0xDCC716FF, 0xF51A15C7, 
    0x0816FE15, 0xC9FCFBC7, 0xEFCD0035, 0xDBF00515, 0xFEFDEF3E, 0xECC55AB3, 0xE9B511C9, 0xDE33F3CA, 
    0x05151136, 0xE21BEDBB, 0x22BA0A0F, 0xD9FFEB24, 0x18EE1854, 0xE6DB50BE, 0xFC08C7D7, 0xE209C0F0, 
    0x07382C2E, 0xF558E5AD, 0x0EF422E9, 0x0AF00C18, 0x29091E0E, 0x1CFB23DB, 0xD404CCD2, 0xE6FAC002, 
    0x13472745, 0xF14FEBD0, 0x0AEBFEF0, 0x27FDEE29, 0x151240E6, 0x1532F9FC, 0x2700FBD7, 0xE92DEE26, 
    0x00180404, 0x07F820EF, 0xF1D9F6F9, 0x0CE7020B, 0xE8FF02FF, 0x14FBE406, 0x09F4F1E6, 0x1D181819, 
    0xEFEF0013, 0x0909EFE9, 0x05F80C10, 0x071500F2, 0x09FA07EB, 0x1F12FEF9, 0xFF2ADEF3, 0x041A1107, 
    0xE612F9FB, 0x120F12F0, 0x1223F305, 0x2A1E13EF, 0x2DECD0F2, 0x2F20CCF5, 0xFE38F3F0, 0x17283921, 
    0xF101F8F0, 0x0BFAF0D5, 0x1F11DF13, 0x1924F412, 0x1AFBECE0, 0x2900F7F5, 0x060DF5DA, 0x04251FFB, 
    0xEAE5EC14, 0x1BE0FED3, 0xF9F2D9D5, 0x09E6EBF7, 0xF10EEFF9, 0x1FF7DEFE, 0xE8E6F7E0, 0xE70E11DB, 
    0xEDE3E8FA, 0x05C7EFD1, 0xECE501EC, 0x2215EEEE, 0xFD32070E, 0x20F5E0F3, 0xE20018F4, 0xE21E08CB, 
    0xF2F4D105, 0x00DF05E9, 0xFBF203EB, 0x1DF4FF17, 0x03070518, 0x1FE2D9DC, 0xDFE610F1, 0x112C21D2, 
    0x10F3C5FA, 0x0DE8E60F, 0x19D0FEFF, 0x2FFFFF1C, 0xF6081619, 0x1AE3EFF6, 0xF01A2EF3, 0x0A1428D4, 
    0x0BFBC31B, 0xFEFDFD13, 0x0EE8E1E7, 0x26EAFB22, 0x09F4151C, 0x12EDE1EC, 0xFE0D14E7, 0x0A2B25EB, 
    0x0EF9CC21, 0x0FF6D91B, 0x0FD3F8D7, 0x2E0310F9, 0x0AFEF2ED, 0x1FE8EF0E, 0xFFFA20F0, 0xFF3A1D20, 
    0x18F5F316, 0xF5ECDD21, 0x16D200D8, 0x3619F004, 0x0908F911, 0x07E7DF08, 0xFC0A07EA, 0x103B1A0E, 
    0xFAE50E1C, 0x15F3C51B, 0x25D0F6D1, 0x2B1B0008, 0x29F607F0, 0xE80AEFFB, 0x002802F3, 0x073B231A, 
    0x11E32D0E, 0x24F4C410, 0x26C9E6C0, 0x0EF3F211, 0x09E8F5D7, 0xE20AF80C, 0xC714E0FB, 0x011C02FF, 
    0x13D33724, 0x1418F801, 0x20D8F9CB, 0xF7CFF311, 0x1FE7FAD5, 0xCF0E190D, 0xE306F504, 0xF442EB1D, 
    0xFDFB24F1, 0x1000FCEA, 0xE99C0DCE, 0xF2C5091F, 0x0D141CF6, 0x192EF4EC, 0x0616FCFC, 0xE94DD52F, 
    0xF12453E1, 0xFAFA1CF1, 0xCAC70BFF, 0xDA9CEE14, 0xF522210B, 0x362DDB07, 0x171416F3, 0xEC38E006, 
    0x07013AD4, 0x10F11AEF, 0xFDE6F50E, 0xF9CBF1DC, 0xEA2F0D00, 0x4104C706, 0xF302280A, 0xF924EC0F, 
    0x0BFE28F7, 0x19D20F05, 0xF801FF07, 0xF9FCF7E0, 0x2126F1E8, 0x30FAE003, 0x02E81611, 0xF51EF903, 
    0xFACF0CE6, 0x0BEAFCEC, 0x080BF615, 0xE812F501, 0xF726F0F7, 0x19F6CF0A, 0x13F30620, 0x1AFA06E6, 
    0x1DD00402, 0x0CFFF00C, 0x011A031B, 0xFC0F06F5, 0x0E2AEB0B, 0x0AF5FFFF, 0x3202113D, 0xE9E2EBD6, 
    0x1CE7E31C, 0xF10312EC, 0x180108EF, 0xF7E2F417, 0x05FDE913, 0x29F40508, 0x25F41826, 0x05010BCF, 
    0x16E5E604, 0xF5FAF9EE, 0x13F608F5, 0xF3EDEE0A, 0xE900EB25, 0x43DBF41F, 0xEBFD30F8, 0xED0C2CC2, 
    0xFEE1BA19, 0xDCF80A0A, 0x29E2F3E4, 0xDBE3F010, 0xE5E7FD34, 0x25BD0CFD, 0xE3FF1E05, 0xE60114CD, 
    0x0DF9BF0C, 0xE0DB0DF8, 0x11CDDC12, 0xE402111B, 0xE2E5D437, 0x24E4120C, 0xE7C532EE, 0xDD321FD0, 
    0x17D1DDF9, 0xDFCBFDEF, 0x13CDF92C, 0xCEF70624, 0xBEEEEE44, 0xE6E729FA, 0xB7E7F912, 0xE52819CF, 
    0xFDDBC618, 0x12F236E0, 0x2AB7EE21, 0xD0F90D01, 0xCFB9FB64, 0x021737D8, 0xBBFCED08, 0xF9EDDE12, 
    0xEC22E814, 0x080C11BB, 0x1EEC0012, 0x01E1151A, 0xEFFC1EE4, 0x17172ED1, 0xDF29CBDF, 0xE5C4D70E, 
    0xFF300D1A, 0x032AF1D8, 0x0A1A0608, 0x34F2FB42, 0xF92A1EDA, 0x07210905, 0x140AE5E9, 0xF30E0A0E, 
    0xDF15F5FE, 0xF50326F9, 0xEFF9E90E, 0x01EFF10C, 0xF615FAEF, 0x110EF8E9, 0xF8F202FD, 0xE404011B, 
    0xFBFB18FD, 0xEF050EF8, 0x01130802, 0xF00CF008, 0xF4FCFC02, 0x0E060CF4, 0x140CF704, 0x11011B15, 
    0xE70DE519, 0x0B09FF0B, 0x1032D413, 0x17081109, 0x0FFDFDF9, 0x2C11E1EC, 0x2020E3F7, 0x30112C02, 
    0xE8F1FA08, 0xF62D14F5, 0xFD11D105, 0x3510F508, 0x1AD3E6F7, 0x1310E3FF, 0x0EE7F7D8, 0xE4240FE5, 
    0xE4EE02FA, 0x06E3E6DA, 0xF8EB06E2, 0x16E7E927, 0xFD131402, 0x3ED5E1ED, 0xD9F91BE4, 0x00172AF0, 
    0xF0EAFFD2, 0xF8D0B5F9, 0x0EE504B8, 0x17E8EC10, 0x0213F706, 0x23CAE4F0, 0xF41106EE, 0xF81916D8, 
    0x17D0AEFB, 0x20D9E0F2, 0x0BC5F8F2, 0x37DE0A0C, 0xF9FBE41F, 0x15E2E6FA, 0xDD160EF3, 0x040D23D4, 
    0x06D8B016, 0x18E1D610, 0x0CC909D9, 0x120BEE04, 0x1B00F804, 0x09C6F8FB, 0x072524F6, 0x2A14170F, 
    0x16DAA3EB, 0x0AFAC025, 0x01CEF4D0, 0x3206071B, 0x030BFF03, 0x0DEDF200, 0x0C1A12FF, 0x100D232A, 
    0x1BC9AF07, 0x1017D821, 0x20CCF3D0, 0x1A0EF4FE, 0x0CF905FA, 0xF6E3FF02, 0xF60A02F6, 0x0A142114, 
    0x0BE4E803, 0x2010CC0F, 0x1DC9FAC1, 0x12190D10, 0x2003F6E5, 0xEEF6ECF0, 0xDCFF0A1F, 0x00230A0B, 
    0x13C90C0F, 0x2017D10E, 0x15D2EAD8, 0x15F5F8F1, 0x2AF6FAFA, 0xD1F0F809, 0xE1200028, 0xE807FD00, 
    0x04BE220B, 0x1F1AF60C, 0x1FEC11D2, 0x0DD9FD11, 0x21F5DEE3, 0xDA07FD07, 0xD624E812, 0xF014FB01, 
    0x18F61A05, 0x1813F322, 0xF4C01CDB, 0xEAC60C09, 0x12EDF0EF, 0xE712FD09, 0xF41D0B19, 0xF01AD111, 
    0xFBFF3CE1, 0xEB242AF0, 0xCDC925E5, 0xE0BF06EA, 0x0F0B1716, 0x181502FC, 0x2412170A, 0xD01FF034, 
    0xFE213BF1, 0xE50B16FE, 0xD9E52F09, 0xEEC7EAEB, 0x00331B0D, 0x1C29F415, 0x150534F7, 0xD91FE004, 
    0x010B22EB, 0x10E0060F, 0x17ED2417, 0xF9DE0BD2, 0xE7201B17, 0x291AD82A, 0x03062919, 0xFF1BF50B, 
    0xEDFB19E1, 0x0EEEF40E, 0x09F3FE01, 0xF6DE02EC, 0x0B1416F6, 0x390DE510, 0x07FC0F14, 0xFF0EFEF0, 
    0x20EF1105, 0x09DF101A, 0x0021F314, 0x0D0AF9EF, 0xEC14FB1B, 0x1F04DE14, 0x1CE40A0F, 0xF3F309E2, 
    0x01FFE9EA, 0x16EF0AEF, 0x04FA0A04, 0xF6F7EAF7, 0x16230403, 0x22EEDA27, 0x300F192F, 0x060A01C0, 
    0x13FFDEFB, 0x0EE7FB08, 0x18F00400, 0xFCF2E8F9, 0x0511151F, 0x33DDDF15, 0x04201316, 0xFF14FFCD, 
    0xF900DFFA, 0x10FFF1ED, 0x1BE8F6E6, 0x0FEBFA0B, 0x0F07F204, 0x24F2E51A, 0xF71C0DFB, 0x010225CB, 
    0x07F0DCE3, 0x23BFFC12, 0x17EFF002, 0xEEEAF421, 0xE7FF021A, 0x13ECE01A, 0xC0110F00, 0xE7070ED5, 
    0x0B05B2FA, 0xFCD6E700, 0x13E8E8EC, 0xDBF5FB35, 0xC7DEF919, 0xE3EEFB30, 0xCBF91A06, 0xF63A18F0, 
    0xF9F3B000, 0x09E5F3F6, 0x0EC70012, 0xC6E7F005, 0xE1D2E337, 0xE71E1926, 0xAF24E5FE, 0x17251CB8, 
    0xE0F9B7F5, 0x170039EF, 0xE3E0104C, 0xBFF9F000, 0x0CCDE124, 0xF62D1702, 0xD403D31B, 0xF9E303FB, 
    0xFFFEC608, 0x031738DD, 0x04E51113, 0xE1F0F50D, 0xE7DAEDFD, 0xFE2003FF, 0xD422DD12, 0xDADFCCF1, 
    0x2420EA19, 0x052016DA, 0xE20A1FF0, 0x1BF5F602, 0xDDE50EFF, 0xFA071415, 0xEF2BE5FC, 0xE6CD0A02, 
    0x0710F63A, 0x02001910, 0xE9F72425, 0xFA0D10F8, 0x03DF000F, 0xE0ED0C09, 0xF404F7E3, 0x071BFAFD, 
    0x10F9F8F6, 0xF706EEE8, 0xE7170BF0, 0x1C11F017, 0x190201F6, 0x0501F2FF, 0xF8F609F2, 0xFA060806, 
    0xF0EF24ED, 0xF80D00E6, 0x0CFBF90C, 0x1105F6E6, 0x19F4FAEE, 0x2A18F8E0, 0xFD15E2C8, 0x33062B07, 
    0xDCFF0E0F, 0xEA2C0DD8, 0x1C2BD61B, 0x1F18F901, 0x2AE5D6CD, 0x39EDF309, 0xFF181A06, 0xFDF2FDF9, 
    0xF6EE0BEE, 0x060AE80B, 0x06F5FCDB, 0x0AF911F2, 0x0C03ED0F, 0x28EFCEED, 0xF7292329, 0xF9DEF9FE, 
    0x07BFD9DB, 0x10DED6F2, 0x02DFF6DF, 0x2DF30DF1, 0xF616E009, 0xF7DBFBFD, 0xF71D0E01, 0x0FF51CEF, 
    0x12C9C100, 0x25F7E1F4, 0x08A3E5FB, 0x22EC0B1E, 0x18F8B40F, 0x0BB2F6FC, 0xFF120904, 0x0B090C01, 
    0xF2CD9C04, 0x0BF9D924, 0x10BA04FB, 0x1AEE01FD, 0xEEDEDA2D, 0xEDC5FB0E, 0xEF2C0F28, 0x10FC0E0A, 
    0xFFA89EFF, 0x112CE406, 0xFEE5F5FD, 0x2BFB08F4, 0x02D5F112, 0xF7DAE601, 0xFD1119FE, 0x220EFB1E, 
    0xF3C0A204, 0x1F1FED10, 0x17CE13DF, 0x26EC0F11, 0x00E8FD18, 0xDDF6F80A, 0xF410FE12, 0xF92D0B18, 
    0x0CCEC205, 0x2222DB30, 0x14EAF6EF, 0x030F07F7, 0x26EE050B, 0xD4EEF31F, 0xF72C1904, 0x1F1708F1, 
    0x08D6FFFB, 0x1029E715, 0x0DEBFFFB, 0xF5DDEE02, 0x26F5EF0B, 0xE6F1E834, 0xE51E0020, 0xF015FDEC, 
    0x0FFA11EF, 0x1410001E, 0xFBDDF6E9, 0xF7DBFEFE, 0x02FED515, 0xE60F1621, 0xE611131C, 0x020ACE0E, 
    0x171415DB, 0x151D2104, 0x07E00CF6, 0xF6CBEDEB, 0x0111FA00, 0xFAFD0D1F, 0x121E1F2B, 0xCF16DB15, 
    0x133B23F2, 0x09FD2105, 0xEFF318FE, 0xE6BFEDEA, 0x0D15122A, 0x2322020B, 0x07030514, 0xE40FCF2B, 
    0xFD3935ED, 0x12F01F16, 0xECD9210F, 0xE7C8FAF3, 0x052E2302, 0x2D30EC1E, 0x201C20FC, 0xDA22DF17, 
    0xF8FE3EEB, 0x05ED25FC, 0xFCF21826, 0x06D7EDDD, 0xFA1C1810, 0x1806E23B, 0x03F6411A, 0xEE1CDF05, 
    0x110D29FA, 0x17F3F716, 0x07F72A20, 0x06FDEBF0, 0xFD0F0AF5, 0x3011C71F, 0x090B332B, 0x08F0E6E9, 
    0xF9F6F2FC, 0x1CF6E907, 0x1F15020E, 0x24FDFCF3, 0x092002F3, 0x11FECE11, 0x11041B2F, 0x04FA01DC, 
    0xFCFADCEB, 0x1701E609, 0x15FDFA19, 0x0CE60DE9, 0xFC03FF00, 0x2B02DF0B, 0x150AFB1E, 0x210B02D3, 
    0x01F7F5F6, 0x0501ECFC, 0x0FF8E0FA, 0x01040CFB, 0x0CFB0ADE, 0x0D06DF0F, 0x091F1114, 0x17F614D2, 
    0x09FDF2E2, 0xFDF1F903, 0x0FEEECF7, 0xF500F41F, 0x1D0601FB, 0xFA03D604, 0xD328E600, 0x272422F4, 
    0xEBF5D2FA, 0x13BD0302, 0x0DE2E706, 0xE805070A, 0xEE0AE009, 0xF90BD621, 0xAF2FF6F9, 0x041E28F5, 
    0xFFFEC8F7, 0xFAE2E70C, 0x07D2D502, 0xE1F10B09, 0xEBECDA12, 0xDBFEED07, 0xD22CEAF2, 0x181E30E6, 
    0xEFDEC307, 0x0B04EBEB, 0xF2D3E11D, 0xEEF90612, 0x17D8F507, 0xE1FF1118, 0xD02EDCFD, 0x0C1C20FE, 
    0x10FCD9EF, 0x10140AE6, 0xD7080924, 0xD3EB0311, 0x11DFF818, 0x021EF73B, 0xF118EF08, 0x00FBF7FB, 
    0xF4FB02F8, 0xFC0C0D0A, 0x00021224, 0xDBDEF6DB, 0x06D4FC0E, 0xF8281528, 0xE242E715, 0xE2D1DB29, 
    0x1320FC04, 0xF9202AFE, 0xCC253CEC, 0x0213F510, 0xD1E8FFF1, 0xFF11F208, 0xF226D7FB, 0xF7E2F003, 
    0xF60CF816, 0xEF292A16, 0xFF0B2F02, 0xEBFCF60E, 0x06DA1E05, 0xEC060102, 0xEF1309F5, 0xED20F7EB, 
    0xF108EC08, 0x13FA07EB, 0xF9F8090D, 0x1510F311, 0x1EF50E04, 0x02F6FA00, 0xE6F9F20A, 0xFE070CFD, 
    0xEB011EF6, 0xE9FF0E0B, 0x1CDBEC18, 0xEAE8EDF7, 0x05F8F9F5, 0xE706EF15, 0xF318E40A, 0x01041D0F, 
    0xF70E0401, 0x14191CF4, 0x0EF2FC12, 0x0B0912E2, 0x26EBF7E8, 0x06DDD810, 0xD520F8F2, 0xEFD6F40F, 
    0xF8FC1528, 0x1521F4E9, 0x18CD0B0E, 0x07CC0DEA, 0x03FDD1E6, 0x0504F9ED, 0xF9170524, 0xFED2FA0F, 
    0x01DA0901, 0x0C1AD4FC, 0x06C304F7, 0x1AE3FC11, 0xFBF0C709, 0xEDEB0308, 0xF430F414, 0xF8E507EC, 
    0x0DC4E8FD, 0x131AE3F7, 0xE5B81DF5, 0x15E91203, 0xF4F0B725, 0xF3F10214, 0xFE35FE07, 0x010822EC, 
    0xFBB5D8E0, 0x0F1EE60D, 0x0FC10303, 0x10E8FBF4, 0x10DBDC13, 0xF5E3031D, 0x07172325, 0x0D1523EE, 
    0x16BDB1EF, 0x2C04D917, 0x09D71817, 0x15FB0E05, 0xF6E6EF15, 0xF4F6F318, 0x13131A01, 0x171CF90C, 
    0x15D3A4E1, 0x1F18D618, 0x17E1130F, 0x17EDF70F, 0xE2D1E006, 0xE805F710, 0xFF290CEE, 0x160D04FD, 
    0x14E6B4F1, 0x041CFE2F, 0x0CDC080A, 0x13EAF212, 0xE2F7EE09, 0xF7F5090E, 0x042E1B1D, 0x0320EC03, 
    0x0D08DDF2, 0x010AF836, 0x1DFC120B, 0x10E7030A, 0xFCEFE803, 0xD703F328, 0xFF17261A, 0x0925D0F3, 
    0x2507EDDC, 0x0B1D232D, 0xF8F7FC0C, 0x03C9F2F3, 0x0F0EF21B, 0xE6FC282B, 0xEE1D0730, 0xF20FD4FF, 
    0x011918FB, 0x1FFA1C2B, 0xF6E40BF0, 0xFAD702EB, 0x132CFE1C, 0xFB270B0B, 0x05090712, 0xFD11E6FD, 
    0x07411C15, 0x1EE5340A, 0x06F13404, 0xD4BFFEF8, 0xF50F241D, 0x241BFB2F, 0x191928EB, 0xE731E114, 
    0xEE3E230A, 0x20E440F6, 0xF9E02B04, 0xF6C2E9D7, 0xF10B3416, 0x2517F93A, 0x0103241F, 0xDC0CF8E7, 
    0xFB1817F6, 0x20EE0601, 0x19F61724, 0x06EC0BE5, 0x1302040F, 0x2511D73F, 0x14071B26, 0xE4EFF4DD, 
    0x08E427F9, 0x230BFE02, 0x181414DF, 0x15EF0AF6, 0x01211700, 0x3502EB3A, 0x16022A11, 0x2B0DF3E9, 
    0x01FF10E5, 0x1119EE16, 0x080200E6, 0x05F704F7, 0x0EFDF9FF, 0x1FECD720, 0x14180D25, 0x2E1403F1, 
    0xF907EC08, 0x10190DFF, 0x0EF3F1F6, 0x11EA040D, 0x1A1C04E7, 0x091ED318, 0xFD0EE719, 0x38100BEA, 
    0xFE01FEE0, 0x1BEDF9F7, 0x12F2F7F9, 0xE6F800F7, 0x2103E805, 0xF701D107, 0xF719FB1C, 0x2B281BFB, 
    0xF2F2EFCE, 0x02F8E3FB, 0xE7ECF516, 0xEF0EEC17, 0x0A06DEEF, 0xEC00C31A, 0xCC23FA1A, 0x39261C08, 
    0xF201CEE0, 0x16FED515, 0xEA11DA18, 0xEFF6EE07, 0x10EFEE03, 0xFB1FEA0F, 0xC11CFCFA, 0x141D0A0F, 
    0xF1EEC0F9, 0x03E9F4FE, 0x11E8DA17, 0xEAEBF5F7, 0x2F06E3E5, 0xD626FA11, 0xC821D9FF, 0x0D2D280A, 
    0x05F7E4FD, 0x1703E6E8, 0xF5E9F213, 0xF4F1110B, 0x27E4E8FB, 0xC5151419, 0xDA34D705, 0x1FFA0BFD, 
    0x0003CEF8, 0xE5221109, 0xEEE8090E, 0xECD9F61D, 0x11EEE719, 0xE304DF3F, 0xD4FD091D, 0x07F408F0, 
    0xEE02F9F7, 0xEB091B2F, 0xEE2012F9, 0xF0EF03F1, 0x01CCFC2E, 0xEC3EE81B, 0xFD4EF61E, 0x00E4EE00, 
    0x3F22EBF7, 0xE90C0818, 0xEE0722E5, 0x1E10FAEB, 0xDCEDE0F4, 0xF72A0909, 0x0C0AF103, 0x0CE60121, 
    0xFC28FEF9, 0xFC180D15, 0x002905F8, 0x0C0D08DB, 0xE1F013EF, 0x1B17E117, 0x0EF3FF0B, 0xFFFE0AFE, 
    0xF1F5E508, 0x12DC16F2, 0x0C00EA15, 0x0DFC15E0, 0x09E8FF01, 0x131114EE, 0xFCE20311, 0xFD01F812, 
    0xE50609FD, 0xF5FB01F3, 0x0908FF04, 0xF5EE14E1, 0x1102FFE5, 0xE216101B, 0xD7EAD704, 0x231906FF, 
    0xFA02E100, 0xE50516FA, 0x02EC0A10, 0xF5FEF3D6, 0x19F01B00, 0xEA120911, 0xD62BE514, 0xF3D1EA10, 
    0xF60DF519, 0x0DFF26E7, 0xF1E30F09, 0xF9D6F8D8, 0x020810DF, 0x0AFF00F4, 0xEF1CEE19, 0x0CFCFB18, 
    0xF6D5FEE2, 0xE31815D6, 0xD9D70E15, 0xE9040405, 0x13FBE20C, 0xF1F3F3EF, 0xF5110616, 0x15F21200, 
    0xE8D024D3, 0xEF28FF03, 0xE2DD0FFB, 0x0AEF11F8, 0x0CDDD01C, 0xFB0C0705, 0xE7EDF716, 0x0FEF0603, 
    0xEF04E6E4, 0x101B0DF2, 0x04D82312, 0xF9E0FDF6, 0xF1D9D71B, 0x18FA0C29, 0x0AE51B14, 0x22F22409, 
    0xF602C7E6, 0x1C1B0A03, 0x2BF00904, 0x24F011E7, 0xE3D9CA07, 0x07FA0E2B, 0x0DF22217, 0x23100AF9, 
    0x0507BAEF, 0x080FE618, 0x24F5EE13, 0x0C02F207, 0xE6CDE7FB, 0xF705FD37, 0x16121CEE, 0x0F0609EB, 
    0xEE10A5E8, 0x0E1E160B, 0x1AEEF5F1, 0x0AE3FAF9, 0xD1DDEB25, 0xEDEF0B44, 0x1B18241C, 0x1C1E0A03, 
    0x1338E6D7, 0xF1120724, 0x14FC14FE, 0xFEE2EC19, 0xD7F3E629, 0xF8E92931, 0x2014361A, 0x1011E2E4, 
    0x0E26FDE6, 0xE804102F, 0x10FB1CF2, 0xF2E0EBF5, 0xFA08E029, 0xF60B1136, 0x14311A31, 0x07F8CDFA, 
    0x0A340E0C, 0xF1E9250D, 0x03E603FF, 0x16EC0FD3, 0xF4FA192B, 0x0E28F720, 0x0D141DF8, 0x0021DAFC, 
    0xFE450707, 0x0AE43C17, 0x0CE614F9, 0x0DBEE8EB, 0xFE19231D, 0x0438E34A, 0x010E22DE, 0xD518EC0B, 
    0x09141F0E, 0x09F72202, 0x16E0211E, 0xFBC5F2E6, 0xF9EF2E14, 0x2312EA25, 0x0D200B17, 0x06F6EAEA, 
    0xF1F81513, 0x1F010E18, 0x0EF81BF7, 0x16F606E6, 0xF50717EE, 0x0D10D740, 0x1A151717, 0x02E9FAF6, 
    0x1AEF060B, 0x1B090127, 0x06EF2302, 0x18FAFBE5, 0x08FFFD0A, 0x08F1F321, 0x14101439, 0x2202FAF2, 
    0x11F9F5FA, 0x1C0FFC13, 0x270919F5, 0x29DFF0FB, 0x29FDD903, 0xF80BDC0B, 0x2126EC19, 0x3D0607EB, 
    0x0EFBF9FD, 0x060D0D04, 0x1A05FFEE, 0x03F7F2FB, 0x1615E20F, 0xF702E122, 0x0A1BCE2B, 0x380C19F6, 
    0xFDF7F9FD, 0xEE03E912, 0x1007DF08, 0xFDF20AE2, 0x35FCE4EF, 0xF315D306, 0xB72BDF0F, 0x260521EB, 
    0x0A08E4EE, 0x18E1D703, 0x19FD0301, 0xFB07FB01, 0x32F0D701, 0xCF16C424, 0xBD2AD10F, 0x2D0B04EE, 
    0xFBFFCAF0, 0x00ECECFC, 0x1203FF0B, 0xFEF00801, 0x33FBD2F8, 0xF311EF0C, 0xB80CE408, 0x07131505, 
    0x0304BEE2, 0xE6EC0113, 0x0D020D00, 0x09EC09F2, 0x2D03EE05, 0xD429F2FB, 0xBB1AFE19, 0xFBFBFA1B, 
    0x14EFCBF8, 0xF1F90B01, 0x00E1FE00, 0xEEF0060B, 0x05E920F4, 0xC83A121C, 0xBA29DE06, 0xF0081B17, 
    0xF812D8F7, 0xE81514FB, 0xD50CFD1E, 0x04D5FCF0, 0x1DE9040B, 0xCC01F157, 0xBF0F0B1F, 0x18EAF811, 
    0x0D23D811, 0xF50A303E, 0xE31F32F2, 0xE6F616C9, 0xFBD3FF48, 0xFF3CFC26, 0xF934CE0D, 0xFAD4F5FF, 
    0x081EE00F, 0xF1382134, 0xDB2F26EB, 0xF8140BE0, 0xD7DB10F7, 0xF12BF41C, 0x0AFAD9FE, 0xFFE0F129, 
    0x0B1CE504, 0xF90B1705, 0xF30A1112, 0xFDF809F6, 0x0407F2E1, 0x0A030913, 0x0D14F014, 0x16101307, 
    0x0E00EDF9, 0xFA08F5EC, 0xFCEE0E04, 0x0D07F2FA, 0xFA0FFFEE, 0x020D08FA, 0xF8F7E2FE, 0xFE2C0F05, 
    0xE3080F04, 0x05DF1CE2, 0xF8FEF42D, 0xF80209DD, 0x0409F1F8, 0xF627F701, 0xD8E3EF2B, 0x1BFA0921, 
    0xF600F6E5, 0x070B1D03, 0x0008FB0E, 0x08E80BDF, 0xFE050600, 0xF7101805, 0xDF2ACD36, 0xFFFBDB12, 
    0x0012F701, 0xE1E923E4, 0xC8CE0CF9, 0xEBF503D8, 0x19240EE3, 0xE71205DE, 0xDD4CC23C, 0x0FD808FD, 
    0x0BEA1EF0, 0x0BF90DE7, 0xCD08F91D, 0xF6ED0E04, 0x260CD101, 0xDDF404FE, 0xE609F039, 0x21F0FFE2, 
    0xF4FA14FB, 0x0833F2DC, 0xDFE80017, 0xF1F30B0E, 0x19F6EC18, 0xCF1104FD, 0xEDE3FE34, 0x07F3F3D1, 
    0x0FFC07DD, 0xF130E4F1, 0x10E81806, 0x14D212FA, 0xF7EAF316, 0xE40D082B, 0xEFEE1B0F, 0x0DF2FED9, 
    0x0306F8D6, 0xF30EEDF2, 0x0FF0FE02, 0x0AE2F1FB, 0xE1EFD00A, 0xF5EFFD26, 0x17D434FD, 0x1EFF0BF1, 
    0x0819CAC8, 0xEE0E0A1D, 0x22060CEF, 0x09E806DB, 0xEDE4E627, 0x06FC0029, 0xFEE2420A, 0x08FC1CE1, 
    0x1539C5F9, 0xE7161A1A, 0x13DC16EB, 0x0FD90D0A, 0xD1E5021A, 0x0CFB091A, 0x24F039E4, 0x00FE21C4, 
    0xFA27CAEB, 0xF0FA0213, 0x06FEFC03, 0x13F6141D, 0xD2CDEA32, 0xFFEE243C, 0x1DFA40FC, 0x13F6FBD4, 
    0xF937DA1B, 0xED151F22, 0x280911F3, 0xF9E4F2EA, 0xD9E0E823, 0x16F4FF43, 0x01E12EF2, 0x05F0E0E0, 
    0x053AE61A, 0xF3FB2EF8, 0x20F5FC0C, 0x14D2F1E3, 0xDAF30724, 0x061DD92C, 0x1AED1BDE, 0xFCF8EAEF, 
    0xE71E051A, 0xF107350F, 0x0FE826FD, 0x01C40DCB, 0xE3E21A0C, 0x232BD53D, 0x14FD09DB, 0xF508DEF2, 
    0xF10E210C, 0xFF210E23, 0x0FDD321D, 0x1DD60AFC, 0xD60206E5, 0x17FEEB1D, 0xF90A0CFE, 0x110203F3, 
    0x09ED1717, 0x142FFA12, 0x16F02718, 0x11FAEDF3, 0xFDF3E80D, 0x14F9F319, 0xFD0F1D33, 0x1EFC01FD, 
    0xFAE70519, 0x0B28F823, 0x1AFC1F00, 0x0FF4EE05, 0x1615EDFE, 0x02040823, 0x13261138, 0x4BF1F5F2, 
    0x0AE4F6F6, 0xF9170614, 0x2709FD05, 0xF9EE0CF5, 0x190EEFF5, 0xE9FBF50E, 0xF235F334, 0x490D0AFD, 
    0xF71112FB, 0xFB020C03, 0x0BED00FE, 0x000800EA, 0x2904EE0A, 0xCE15E503, 0xDB1B0131, 0x3F1EF5FD, 
    0xFDE8EFE5, 0xDCFC0D08, 0xF6FB0E06, 0xEFF3EAF7, 0x230101F9, 0xEDF0C500, 0xC124F30C, 0x391F1CFA, 
    0xF209D0EC, 0xF3FCE4F9, 0x14EB0D08, 0xF7E20005, 0x2DFBF702, 0xC826EC0D, 0xDA0CE021, 0x1105F9FB, 
    0xEE01C8F7, 0xF3FAE606, 0x0C150EFE, 0x0BF0070F, 0x1E0F11F6, 0xE010EF14, 0xD613E51D, 0x19081AFD, 
    0xF8F9D3FE, 0xF713FF00, 0xFC12F21A, 0xF300FA0E, 0x03F1F1FA, 0xDA22EE14, 0xC801FD00, 0xEE1A0614, 
    0xFB01F503, 0x09EAFDE8, 0xFDEC0BFD, 0xF8DDECFD, 0x2601190B, 0xD53CE908, 0xEC11EAED, 0xD9F6F909, 
    0xE80CF704, 0x0B0C27E6, 0x020615F7, 0x0BCB090B, 0x08FD0C00, 0xEB1CDD3C, 0xF624ECFD, 0x1AFE0DEB, 
    0xD121F0E8, 0xF51D3022, 0xD72A2F3E, 0xF318F3F5, 0xECBDF712, 0xFA48F71B, 0x0306D105, 0xF2E2F701, 
    0xE22AF9FB, 0xEA2B24F4, 0xFA1E0209, 0x0C090DE9, 0xDBF4E5FA, 0xEBEFFC1A, 0x090FF6E5, 0xFDE71304, 
    0x172DF1F5, 0xF70C2700, 0xEC0C10EA, 0xE420F3FE, 0xD9EB0316, 0x10FD21E5, 0x01FBEE04, 0x05010913, 
    0x060016FC, 0xFAFBF20C, 0xFD03EDEE, 0xEBF9071F, 0xECFD0D07, 0x0500F0FC, 0x00D9F909, 0x0A0CF411, 
    0xFB0B11FE, 0x0F020CE4, 0xFE21F522, 0x07E9F3F1, 0x17210AE9, 0x0412FFF4, 0x1AEFEF23, 0x22130E03, 
    0xFFDD0209, 0xEAF70F08, 0xEDF2F01F, 0x02CF05E4, 0x171D14E8, 0xD643FCF4, 0xCB1DCD37, 0x090FD11F, 
    0xF7EC0AF9, 0x17DA17F7, 0xECEC0C05, 0xCBE6FCDA, 0x262C21EF, 0xE90C02E6, 0xD44FBA2B, 0x07E707FF, 
    0x070A0604, 0x130921FC, 0xCA050515, 0xF4DFFE01, 0x1F1E06E5, 0xD6192EF2, 0xEA09D246, 0x20E2E304, 
    0x15F01FEA, 0xDB1220FD, 0xFD001AF0, 0xE3C7090E, 0x251600F5, 0xC50910D5, 0xCEE00241, 0x2DDDF9E0, 
    0x0A0A0CE9, 0xF63D0DF7, 0xFDFD11EA, 0xF4D0F804, 0x26060308, 0xC9FFFC15, 0xEEE30D19, 0x0CEE19E3, 
    0x011712E5, 0xFA140400, 0x17051CE0, 0x02D8E904, 0xF9E9F70F, 0xFAFAF915, 0xEAC025FC, 0x0FF80BEF, 
    0x151CF6D3, 0xF31FF908, 0xFE0B03EF, 0x11EDF3F4, 0xE3FFDB27, 0xF7FAEF19, 0xF3BB3C00, 0xF21116F1, 
    0x083F0AEC, 0xEA1A05F9, 0xFE0C09E1, 0x01EE1408, 0xE4F0EA1F, 0xF6E7FD21, 0x04BB3C01, 0x00012BD1, 
    0xF929F926, 0xF9161D06, 0xFEFF18ED, 0xF7E9FD09, 0xE1DAFC40, 0x0B02EB14, 0x1FB43000, 0x021B06CF, 
    0xEF37D616, 0xDF141216, 0x0F1708E5, 0xEBC9FEE5, 0xEBECE918, 0xFB07D62D, 0x22B432DC, 0x04FDFBC8, 
    0xE227FF2F, 0xFE18191D, 0x0C251EF3, 0x01B3F3DD, 0xFDDCFF20, 0x1629B841, 0x22DE1BFA, 0x010EEBF5, 
    0xFB200F3A, 0x03051921, 0x2A05260E, 0x1B9FEED4, 0xE2E10502, 0x0A18BB22, 0x0AF0FEE0, 0x131401F6, 
    0xF3041BFF, 0xF7130F12, 0x01EB2908, 0x27D0F4F7, 0xFDE70606, 0xF5F2CE23, 0x0FEEFE12, 0x15FEEA07, 
    0xF1FD1A15, 0xEE131121, 0x21FE311B, 0x1FE40302, 0x0C0EDCF2, 0xE208FE1A, 0xF70DEB30, 0x140EFFF1, 
    0x0FDF1503, 0xFAFEF90D, 0xF9072016, 0x02EEF2F8, 0x2803DA13, 0xE6F6FE21, 0x070AEC09, 0x230C1A0F, 
    0xF1EB1219, 0x030A051D, 0xF60E12F9, 0x02FB08EC, 0x1018010C, 0xF400E314, 0xFB10FD0D, 0x31F713F2, 
    0xFFEE1614, 0xDC141918, 0xEBF92019, 0x03F5F6FB, 0x21FADBFB, 0xEB08FD0A, 0xE906F80F, 0x1205FD12, 
    0x0FE9E40C, 0xF2FEEE0C, 0x04FF1306, 0xE5F5F003, 0x2B160D02, 0xFCFBFA00, 0xBF14F1FE, 0x0F0FF904, 
    0x0EF8D6DB, 0xDD15EAFD, 0xFE01F2F9, 0xF313FAEC, 0x251420FF, 0xF505E8F3, 0xC9F6EA08, 0x00F50723, 
    0xED04ACEB, 0xF7FEF90A, 0x09F70621, 0xFF08F0F4, 0x28F6F600, 0xDA2218F3, 0xDFE0EC1F, 0xFD02F92F, 
    0xF6E4ADF1, 0xEB1915FE, 0xE7001416, 0xF0EA11F8, 0x22E90E15, 0xC71C1303, 0xD009EE1B, 0x01DAEC0D, 
    0xF711B904, 0xDC091BFD, 0xDC0816F2, 0xF3FBEB02, 0x14DC29F0, 0xBD231118, 0xD711E5F6, 0xF5D4E90A, 
    0x0125F811, 0x00F630F7, 0xE50231EF, 0x00F7F812, 0x03E3331D, 0xF615F034, 0x00EFE8DF, 0xE2F01A26, 
    0xF5231202, 0xE8EF3228, 0xD741300B, 0xF339FBEE, 0xF4F20D0B, 0x1C39C616, 0x0803E5F3, 0xF6D0F509, 
    0x01120C15, 0x0812120C, 0x122FFC0D, 0x192DECD9, 0xF419FBD8, 0x0317CE2A, 0x0A08D503, 0xE1E00034, 
    0x25130115, 0x03DB0416, 0xEE183010, 0xEB13FDF6, 0xE1F107F7, 0x0A00FB09, 0x1303F5E9, 0xEFF1FEF0, 
    0xF0FDFAF5, 0x050A10FF, 0x0EECF302, 0x02F4060E, 0xF51513EE, 0x0213FAEB, 0x0EF9D8F2, 0x012215FE, 
    0x0C0CFB07, 0x18040D00, 0xE807E50E, 0xFF140619, 0x0F06EA07, 0xF8E7E7F3, 0x0FDBE7F5, 0x0909EC03, 
    0xE3F2E912, 0x0309E5F1, 0xF80FF609, 0x1811F3F5, 0x01F806FD, 0xDA15FBE6, 0xD307E020, 0x1EEFD81B, 
    0x0AFF05D7, 0x14D6FA09, 0xDE23F40A, 0xDCCCECE6, 0x24320BCA, 0xE9310B03, 0xE636C720, 0x27CCF0FA, 
    0x12EEFADB, 0x06FC0DF9, 0xE413061F, 0xCEE00EFB, 0x2A04EAF9, 0xF7033AE1, 0xEF1CF737, 0x2EF8ECE8, 
    0x19EA1CF4, 0xE30023F3, 0xFC0CFBF1, 0xE5D4EEFF, 0x0F2CE0F0, 0xD5FB29F4, 0xD5EFE622, 0x08F5E4F0, 
    0x0B0920FF, 0xD51513FF, 0x0425FBF7, 0xBAE8EF0B, 0x1927F508, 0xCE0B2100, 0xF9BD060D, 0xFEE3F6E3, 
    0x152419EA, 0xF1041EFA, 0xF30D27D4, 0xDEF9EC02, 0x0206F60E, 0xD7080700, 0xDFC70A10, 0xF6F90CF0, 
    0x0A281DF1, 0xE72411F3, 0x04141CF1, 0xF1FF04F3, 0x15090E22, 0xE9ED0D04, 0xECA60000, 0x0A0C1406, 
    0x0829F30F, 0xFBFC22E4, 0x011411D9, 0xC9DDF20B, 0xF6F62123, 0xEB02F804, 0x00C31FF3, 0xF5171EF0, 
    0x11290B2E, 0xEF0C2309, 0xFF2114D5, 0xC0E800EB, 0x18FFFA3B, 0xE9E9E509, 0x16BE00DA, 0x0F192AD1, 
    0xFA240C19, 0xF0F82809, 0xFB1B25ED, 0xC7D4E8F1, 0xFCDCE114, 0xE4DFE321, 0x1FB802E1, 0xFF0E2BE6, 
    0xFB040130, 0xF6F4231B, 0xEE2222F5, 0x03C609F7, 0xFDDFE70C, 0x06F9D811, 0x03BBF3FB, 0xF3FF0DFB, 
    0xF0131B20, 0xFF0D1711, 0xF6221609, 0x00D20B15, 0xFDDB1717, 0xF50CEB20, 0x1AE9F9FD, 0x01F5FEEE, 
    0x09ED0F07, 0x070411F9, 0x24191D03, 0xFFF2F618, 0x00E31205, 0xF10CF707, 0xE916FB06, 0x01FFFB10, 
    0x07001AFA, 0x03030604, 0xF7022513, 0xFAFEE812, 0xFBE70013, 0xFA0D18FD, 0xEAE90715, 0x1102F909, 
    0xFA041905, 0x08F6061E, 0xE3062007, 0xF9010E14, 0x07010DF3, 0xE5070FFB, 0xEFFFDBFC, 0x170DFE12, 
    0xE3FB0DF9, 0xEC00080C, 0xFB0328F4, 0xE8FB0706, 0x1C00F8FF, 0xEBFD1B00, 0xD3ECF8F8, 0x1B0DE71A, 
    0xF1F11003, 0xE80CF3F7, 0xE1F72B02, 0xF4FCEFF6, 0x0C030911, 0xEAF409EB, 0xDEECFE02, 0x1D0EFE1F, 
    0xFBF9EB04, 0xD911F206, 0xFF04090E, 0xF60BF10E, 0x31250A0B, 0xEE0B1EF8, 0xE1FAE311, 0xFA08072A, 
    0xF6FEA5FF, 0xE717F108, 0xFF0D2B12, 0xEF1001FB, 0x201B2200, 0xDA0B1EFA, 0xD6E4E517, 0xE8080D15, 
    0xF3F0B503, 0x04F507F7, 0x0D051208, 0xDE10FEEE, 0x2EEC250A, 0xE21726FF, 0xEBD3D7FB, 0xF2FEFA07, 
    0x08EEB517, 0xDF050B03, 0xDF0E18FC, 0xF50EEBF5, 0x10F21A14, 0xC71213FB, 0xC6E7FCF9, 0xFBF9FB0E, 
    0xE80AD8FF, 0xDA0F06F1, 0xF11A1FFB, 0xF3EAFCFA, 0x10F41F17, 0xC6FA16EF, 0xD10EE8DF, 0xE5E9F20E, 
    0x0B1DE214, 0xFB1803F8, 0xF10F25FA, 0x0F001026, 0x13F3210C, 0xD80DEE1A, 0xF9F4D9F4, 0xDBE60813, 
    0xF921FBFA, 0xF5111020, 0xC2302412, 0x042902FE, 0xE3060C21, 0x082CE31C, 0xF9F5E317, 0xF6F11314, 
    0x0326050C, 0x01050415, 0x01311617, 0xF42401F8, 0xDD0B0208, 0x001DED0A, 0x1CECDAE4, 0xEDDD0316, 
    0x221D2215, 0x09092D25, 0xD8070EF2, 0xDF001204, 0xF5DF12F8, 0x13EA1012, 0x0EEC0410, 0xF9FC02F7, 
    0x0EF1FAF4, 0xF71512FF, 0x0A010B02, 0x16FA0301, 0x03F3FF0C, 0xEB091012, 0xE9EFF208, 0xEB0A021D, 
    0xFFF6E806, 0x07FD15F7, 0xF60BE80B, 0xEEE6EC00, 0xFFF40008, 0xEB000408, 0xE1CBEC14, 0x26E7E200, 
    0x1413EEE4, 0xE00008F6, 0xEE0814E8, 0x0B1800FC, 0xFE0C0C05, 0xB7261602, 0xD7ECC62F, 0x26EBD70A, 
    0xF6FDEFE1, 0x0ECE07F9, 0xF3410514, 0xF5EA11DD, 0x16FEF6D6, 0xCE16071C, 0xEA25CB2F, 0x17D903F3, 
    0x15FFF7E5, 0xEDFF2615, 0xD3272708, 0xBFF8EE07, 0x0206F4E5, 0xE0FE3DE7, 0xE9F0EE40, 0x1AE607E3, 
    0x12E718FF, 0xD9121FEC, 0xE81DF9E7, 0xBF05F8F9, 0xFD0DE70E, 0xEB2545F8, 0xE2F8F917, 0xFCEAEBE3, 
    0x290E02FD, 0xF3060EF0, 0x051CF8D5, 0xD0EE05FB, 0x23020621, 0xE61C360B, 0xD8D3EE25, 0xF2FCF201, 
    0x1F1B1CFF, 0xFCFF2EF8, 0xE925FC05, 0xCE0B02F5, 0xFC15FA2C, 0xED1425F6, 0xD1DAE20E, 0x0207F8FE, 
    0x101E11FC, 0xF3F000FD, 0xE8341EE3, 0xC7F31109, 0x12062E19, 0xF90E21F6, 0xD3DFF208, 0x0127F5F8, 
    0x01141018, 0xEA0105FC, 0xF02DFAF9, 0xCE12F6E5, 0x2CF5232B, 0xF3F90E00, 0xDED4FAEA, 0xFF0C0C16, 
    0xFB05142A, 0xEAF80FF3, 0xE0301FE0, 0xDC0DFC0A, 0x0BF20336, 0xD501F90F, 0xFDDEE3E8, 0xEE0B25FD, 
    0xF8061134, 0xFD091212, 0xF83219ED, 0xF212F1EE, 0x07DE2313, 0xF6FF1005, 0x05D7DAE1, 0x120F16F1, 
    0xF3FA0117, 0xE1F7250C, 0xFF3B15DF, 0xF5100E19, 0x18D90C2E, 0xE7F5EAFF, 0x24E3FF01, 0x0E1E21F5, 
    0xF4F2FF1A, 0xE4F607FB, 0x0E340EF8, 0x0E140916, 0x0AEE1018, 0x03F40619, 0x05FFE90F, 0x10321B04, 
    0xEB092E14, 0xE7D7081A, 0x011E011B, 0x0421FD03, 0x25DC1204, 0x07030FF9, 0xD9040B10, 0x141D0DFA, 
    0x0C070DFB, 0x0AE507EF, 0xFC1C1708, 0x0422EC03, 0x0FF40AFE, 0xF5F610F5, 0xE10A05F6, 0xE9290D19, 
    0x12F31A00, 0x09EAFE13, 0xDBFD310A, 0x0F040703, 0x12F015FE, 0x00032207, 0xD1FA0FEE, 0xF8180223, 
    0x11001BF9, 0x19E2FC02, 0xEC09170C, 0x020AFB17, 0x0AF90E03, 0xDEEC19E8, 0xB2F6FE02, 0xEA24FC24, 
    0xFAF5EDF1, 0x0CE80B13, 0xDAF71904, 0x1010F6F7, 0x12F934FB, 0xE80216F0, 0xDBF0FD00, 0x0710F71A, 
    0x10FEB6F3, 0xF416ED06, 0xEA14281E, 0xFA16071B, 0x00FF2919, 0xD10617F5, 0xC9DFF610, 0xF414F61E, 
    0x05FC9AFB, 0xEC1201FB, 0x04F708FF, 0xED16FDEB, 0x150D2DFF, 0xDB0B3D0E, 0xD7F0ECFC, 0xFC03E520, 
    0x14F091F9, 0xFC1000F1, 0xF11F1201, 0xF91012EE, 0xFAE8270D, 0xD4F84FEC, 0xF5CDDAF7, 0xF8E9F00D, 
    0x14F4AF0C, 0xD9FEFA03, 0xDB0F1DFB, 0xFCF8F8FE, 0x12073B09, 0xF3121BEA, 0xE1E60712, 0x0CEAF108, 
    0x0D1BDF0B, 0xD6FF0B01, 0xF01620EA, 0x0F110FF8, 0x2A162728, 0xF6F3EA06, 0x0D0513D7, 0xF3D90922, 
    0xDD1C00D2, 0xEC200805, 0xDC0D0AF4, 0x1F1CEE19, 0xF0112532, 0xEFF7EBFC, 0x09EA08E5, 0x0AFC060B, 
    0xCB0EE2FE, 0xE91B051B, 0xD40B2926, 0x0032ED18, 0xECFE0C23, 0x142DE0FD, 0xFB13D6F7, 0xF1FF0704, 
    0x00F900F8, 0x1A100321, 0xEC17F512, 0xE821EAFE, 0xF506EEF4, 0x0AE717F5, 0xF8FDECEC, 0x08F8F2EC, 
    0x09F3F9F1, 0xF503F405, 0xFFEBF313, 0x0009FC0B, 0x16080404, 0x1BF201F3, 0x09EB11F7, 0xE2FDFD0A, 
    0xFA12190E, 0x07120E18, 0xFEF21613, 0xF7F41607, 0xEC09FA08, 0xFA000202, 0x03F8E2F8, 0x0505010E, 
    0xFD0017F9, 0xF0F1F310, 0xECFCEF19, 0xFBF30FEE, 0xFB0A14FF, 0xDA102A1F, 0xD7C9C730, 0x31EB0018, 
    0x060702F0, 0xDE0A1E01, 0xE2F31CFD, 0xFAFAEBD4, 0x0DFADEF7, 0xC5241518, 0xEDF1B827, 0x1FEB0B0F, 
    0x0E13F0D5, 0xFFE013F7, 0xC725151C, 0xD8EA0909, 0x0CFE0115, 0xE6F92DF3, 0xDE0FE322, 0x20E2FD02, 
    0xF610F0CA, 0xD7091711, 0xCE1A090D, 0xDEEA0B06, 0x032207E5, 0x0B0718E3, 0xB9FEDE14, 0xE1E7E50B, 
    0x1A0207E3, 0xEAE519F4, 0xDD2700F4, 0xBAF00B17, 0xF91EFE02, 0x180027FC, 0xDEEBF00E, 0xDFFBE9FC, 
    0x1F0D22E1, 0xF0F535EF, 0xE10FFEE4, 0xCDE9EEF5, 0x06131222, 0x16F943E6, 0xBC07E4FC, 0xEF08EC04, 
    0x030129DC, 0xFDEE2CF6, 0xEC280E01, 0xB8FC0702, 0x0B052213, 0xF1151DF8, 0xE2F7E90A, 0xF50801F7, 
    0x0F130E01, 0xEAE211E8, 0xF3290107, 0xB51B02E8, 0x17062425, 0x04EB0CFA, 0xDDEB030D, 0x0612EEE8, 
    0x26011F09, 0x06F2010D, 0xEA242304, 0xDA0E0909, 0x20EE241D, 0x02010EF8, 0xF600F505, 0x05291601, 
    0x03161403, 0x09DF0F11, 0xFC3303E0, 0xD83EF7F5, 0x11FE2223, 0xFD0336FB, 0xE81F0912, 0x172801FD, 
    0x0DFC1D22, 0xFBF60E0D, 0xF53D16F9, 0xE02CE707, 0x1ED6161B, 0xFC0C2417, 0xF605F6F8, 0x1E2B1400, 
    0xFAEB0111, 0x02E6FB01, 0xF82302F1, 0xEC4CF01B, 0x2BE91A1D, 0xE4E43016, 0xF806E603, 0x192019F5, 
    0xE0E7092B, 0x02D9190B, 0xF71B0FE7, 0xFB2811F8, 0x1AEE1828, 0x01E6301C, 0x061701FF, 0x023C01FD, 
    0xF1F408FF, 0xFFD60DEC, 0x140D0710, 0xFC24EF15, 0x2BEE2315, 0xF6F71400, 0xF701FD05, 0x123AFD04, 
    0xF514F705, 0x02D00209, 0xF10DF7F5, 0xF8260220, 0x140B201E, 0x00FC01F8, 0xD9F51905, 0x171EF418, 
    0x04F8F108, 0xF4FBE6FD, 0xFB0D0014, 0x0835ED10, 0xFE060409, 0xF90A27EE, 0xD607000C, 0x1336F313, 
    0x09FEE501, 0xFDF3021C, 0xF50816F7, 0x0526F418, 0x11FD3505, 0xF20908FF, 0xCF00F3F6, 0x071CF812, 
    0xF5EDDC0E, 0x03EA050F, 0xFBE623F4, 0xF00FEC13, 0x01111301, 0xF5090CE5, 0xC8E20013, 0x1018FB25, 
    0x140AB709, 0x11E9FF01, 0xF8FD17F9, 0xE919F9FE, 0x01ED340D, 0xE8F909FB, 0xCDE1ECF6, 0x07F1E603, 
    0x11EFA7F7, 0xF9EC0BFA, 0xF5FD2B00, 0x0830F116, 0x14043904, 0x05053AEC, 0xED030900, 0x03EFE20C, 
    0x1BF4ACF4, 0x0B0915F7, 0x07FA12EF, 0x0929FF15, 0x02042618, 0xE2F43CEC, 0xF9E400F6, 0x13D5E80C, 
    0x010CAC02, 0xFFEF02F7, 0xF80E2DD2, 0xE7060AF3, 0x06F53E1D, 0xD4F512EA, 0x03F2F706, 0xFEEAF4F1, 
    0x060BEEFE, 0x021D06FB, 0xF82521C3, 0xEE16ED0B, 0xF0ED3635, 0xECF3F400, 0x120418F0, 0x05D6FFE6, 
    0x030FF7EA, 0xFF37FE07, 0xED0B2ADA, 0xF3281210, 0xF00F1335, 0xED150405, 0x0FE21AEB, 0xEBE20419, 
    0xF017FBFE, 0xF12A0DF1, 0xD30E2A27, 0xEE3C09FE, 0x0313231F, 0xCFF80F12, 0x01F3EBF2, 0x010515F6, 
    0x13100413, 0x0D2E1D0A, 0xEF08160B, 0xDC0D0B07, 0x04F1EE15, 0x020B0BE7, 0xFA01FF0C, 0x150E19FA, 
    0x11F6ECF0, 0xFF0D0214, 0xFC07FB01, 0xFCF7F102, 0xFBF007FF, 0xF7150600, 0x0FF70FF9, 0x080FEEFC, 
    0xFB130BF0, 0x170207F8, 0xEB05F6FC, 0x0FF0EEF5, 0xE5F91DF1, 0x0517FD12, 0x1AF3FBED, 0x0BF403FD, 
    0xFBF6110B, 0xF4EDF7F9, 0xF300150F, 0x02091307, 0x0405F413, 0xE6070AF7, 0xFCD1DD2A, 0x0C15F3FC, 
    0xF704F0FC, 0xDDED0EED, 0xFF0A03FF, 0xF510FCEA, 0x1CFF040C, 0xDBFE19F8, 0xDEFFF209, 0x0C0BE915, 
    0xFAEAF7E9, 0xEDF01D0C, 0xC9091511, 0xE5DF1308, 0x0EFBF806, 0xED0302FF, 0xCDECE3F7, 0x0808E01D, 
    0xEF0902EF, 0x021D13FB, 0xDC16F622, 0xDE15E9F3, 0x201B02FF, 0x08020C0E, 0xC9F2F1DF, 0xDF07EA05, 
    0xEB251BDC, 0xF8ED33FF, 0xBB22FF0B, 0xDE0AF1FE, 0xEDF716F2, 0x2B132AF5, 0xDBF8FEF3, 0xF300F715, 
    0x2A1427F7, 0x23F731F2, 0xDB25F411, 0xDA120F09, 0xE5200910, 0x20000F11, 0xDD0304FC, 0xFE10FEF4, 
    0x15EC11FA, 0x0EF91EE6, 0x0119F2F6, 0xD301F1F6, 0x0DFCFA0D, 0xFEF22DFB, 0xF6100902, 0xF7050E14, 
    0x2B0E21F8, 0xECE92EE0, 0xF0150605, 0xF62C10F3, 0x04F71209, 0xF20D20FE, 0xF000F103, 0x2202F207, 
    0x1F0F1710, 0x01F10D08, 0xEF0FF601, 0xFD2105F2, 0x08F8FF19, 0x06093A03, 0xF720EE16, 0x0710FF12, 
    0x16FC1B11, 0xE1E21F06, 0x1A11FAF9, 0xF42B0C08, 0xF6F91208, 0xFC01380B, 0xF7FC0F21, 0x17FBF3E7, 
    0x16FD0707, 0xEFFE0D05, 0x260005F4, 0x0C3C00F4, 0x04EC1C2C, 0x0EF3400F, 0xF5051B24, 0x2C2F10F5, 
    0x01181612, 0xFE040A04, 0x1D1DF5F0, 0x02270EFB, 0x18EC2017, 0xEB0446F3, 0xE7121DFB, 0x082C1CE7, 
    0x08F6F90F, 0xF5E70408, 0x1CFAF7E0, 0xFD16E71B, 0x1FEA0B0B, 0xFEF63AFC, 0xF8EF0C12, 0x0B181EF3, 
    0x1416F60B, 0x05EA1000, 0x101001ED, 0xF536FA20, 0xFC1014FF, 0x0BFD3008, 0xD20C00FB, 0x2D261502, 
    0x07FFF204, 0xF7EC12F3, 0x0FF4F114, 0xF5140401, 0x14F41C09, 0x0CF028FB, 0xD5FB1608, 0x092E0DF6, 
    0x0E1801EC, 0x09E0E6FC, 0x09E30B1E, 0xF731F20D, 0x0E0B18ED, 0x0DE807FD, 0xE9F0FFFB, 0x1621EF08, 
    0x1704E5FF, 0x0FE8FFF0, 0xE7E4150E, 0x0D27001F, 0xFD0B2A04, 0x02F01C00, 0xD7E7F9DE, 0xF80BEA19, 
    0x1CFFD2F3, 0x17F00609, 0xF60B2118, 0x0C14F52B, 0x02F33404, 0xEC172104, 0xDE02F6FC, 0xF007DF21, 
    0x1E0FC408, 0x17D8FDF8, 0x18FA2115, 0xF50F0903, 0x1E0F2A07, 0xFF0816F2, 0xC603EDFD, 0xF4F6E51E, 
    0x1404B5FA, 0x14F20FF9, 0x0B091AF7, 0xEF1502F9, 0x070F3B1C, 0xF4E91BE9, 0xEAFA0B12, 0xFADAF418, 
    0x23FE9EF7, 0xFFEA1813, 0xFD1125ED, 0x0107EFDD, 0x02F423FE, 0x0BEB0CEF, 0xE40CFE01, 0x1CE5E1F9, 
    0x09ECD4FA, 0xE60906FC, 0x000A1607, 0x0A18F1F3, 0x00F00811, 0xE9CF26F3, 0x030F1F01, 0xF4D3FA04, 
    0x19FEF1F4, 0xF30AE71C, 0xEE1A04E5, 0xF31A1303, 0xFF061017, 0xEEFCFA04, 0xEE021B04, 0xFBE6FDFB, 
    0x1F14FED5, 0xEA380223, 0xCEFD1FD8, 0x1322110D, 0xCDF51139, 0xFE0818F1, 0xFBE622F2, 0xECDCF801, 
    0x110ADEF5, 0x0E1FF316, 0xEC170321, 0x1416FF0D, 0xD60F1125, 0xD603F8F0, 0x0A09FFEE, 0xF618F722, 
    0x0A210E15, 0x1703F104, 0xFBE60906, 0x0EF7F42B, 0x0D0707FC, 0x02F1F8EB, 0x160902F7, 0x14F31AF3, 
    0x060A0100, 0x1804F10D, 0xEF05EBEF, 0x1301EEFA, 0xEE0007EB, 0x15FEFD0B, 0x001601F4, 0xF207130E, 
    0xF40F06FB, 0x040AFFFB, 0xF1F212FD, 0x0DF8F2F5, 0x16FAF5F6, 0x02F20BFD, 0x12EF0411, 0xEF100310, 
    0x13120F10, 0x0CF106FA, 0x0A0DF7FC, 0xF2EB0C11, 0xF80412F1, 0xE5352202, 0xD7F4F016, 0x021E0521, 
    0xFB01E9F6, 0xF2DB2C03, 0xF0E1190D, 0xE2EC02D3, 0x24230A0A, 0xEE1434E3, 0xE8FAEC3B, 0x2DF4CE2F, 
    0xF0EE01E0, 0xEAE0F8E4, 0xE8E5E9F8, 0xE4D60DF5, 0x362EF1F2, 0xF30124F3, 0xD70DBF0F, 0x1719CD04, 
    0xF00AF60D, 0xEB181AF5, 0xF51D0E13, 0x001CEACC, 0x371C1FD5, 0x220DFEF6, 0xEFEAE1E4, 0xFD37EF0A, 
    0xFBEF18D6, 0x050FFAEF, 0xDE1CF72B, 0xD10FEEF9, 0x1A0821D9, 0x1A05FA13, 0xD10AF2E9, 0x1004F910, 
    0x0D132FD2, 0x28EB24EE, 0xED30EF1F, 0xF11B1407, 0xFA0DE8FF, 0x0C061C0A, 0x01FCFC1B, 0x0315FC08, 
    0x0EF20FE6, 0x0BF929F0, 0xEF03D725, 0xDF04F2E8, 0x08F7F5F9, 0x22FF24FB, 0xEA031603, 0x110AF002, 
    0x32DB0DDE, 0xFD090EFB, 0xFCF9F1F7, 0xF61A0EE8, 0xF3041704, 0xF91036F5, 0xF123F802, 0x13F4EDF8, 
    0x26F81B0B, 0xFA0D2EFE, 0x1119E50E, 0xE72BFBF9, 0x04FD0309, 0x05153004, 0x042DED2E, 0x0FF31305, 
    0x29F409EA, 0x121523F2, 0x1616ED05, 0x002F0EF6, 0x0E160515, 0xF91A37ED, 0xFD21122D, 0x1A08F7F8, 
    0x3A02F704, 0xFDFB2B02, 0x0BF8EFFF, 0x0136F0FB, 0x12091004, 0x05FD4A1E, 0xE91D0316, 0x1321091A, 
    0x2D0DF406, 0x0BFA0BE9, 0x1C01F0FC, 0xEF20ED19, 0x00EF1018, 0x101A4707, 0xF7140E2B, 0xF92323FE, 
    0x270D0C26, 0x14EC05F1, 0x2F02E70A, 0xEC2D0203, 0x09131025, 0x09083E02, 0xD31D1D0C, 0x1C2727FE, 
    0x200FF820, 0x07E914F8, 0x0EE4F8F5, 0x052A1116, 0x0E0F030D, 0xFD154600, 0xEA211505, 0x16230F0C, 
    0x1813F618, 0xFDF6FB0B, 0x2FECDC0D, 0x112FF92B, 0x0FF10110, 0x010535E6, 0xD11223FA, 0x083A05F2, 
    0x1F15F5FF, 0x10EA08F9, 0x15E907F6, 0xFB1B1013, 0xF90D160D, 0x0A1314FA, 0xD9F00C02, 0xFF280419, 
    0x0BF0E502, 0x22EFFBF6, 0x1BF10E09, 0xF820FA2A, 0xECEF15FD, 0x1E0E3402, 0xE2F4F915, 0xF60DED1D, 
    0x0AEEC51A, 0x2ACFFE18, 0xFEE601F9, 0x1115EAFD, 0x080115F1, 0xEFFF1FFF, 0xDBE90BFD, 0xE7F0D612, 
    0x211EC1F4, 0x2CE704F6, 0xEA031802, 0x0915EFF4, 0xEA092112, 0xF3F40AFD, 0xECED2604, 0xD5F3D1FA, 
    0x1F0DBC00, 0x06D90F1C, 0xF7EE0FE4, 0x0019F1FE, 0xF5073508, 0xF9F40113, 0x05032FEB, 0xF0CAE717, 
    0x24F3BBE7, 0x05D5FE18, 0x0E0611ED, 0x2C1704EB, 0xD000210C, 0xFDE11700, 0x03E62EE2, 0x02DAF2EB, 
    0x02F9E5F7, 0xFB08160F, 0xD60F36F8, 0x0E2309EA, 0xE81C1B34, 0xFEDD11E2, 0x1DE640ED, 0x1CE6DFD5, 
    0x01000EE4, 0xE60B0218, 0xE30F0503, 0x160F0F14, 0xDF1C212A, 0xF9F5FEE1, 0x0F0E3FFD, 0x2BF00FFE, 
    0x070704DA, 0xFF2BE416, 0xDE032916, 0xF60BFF15, 0xF0FFEE25, 0x0B0AE70B, 0xE9F122E3, 0xFEF2F6F1, 
    0x2915E402, 0x192CFC03, 0xE6151B16, 0x2324150E, 0xDB020F03, 0xF2F700E9, 0xF92904D6, 0xE41BDF2C, 
    0x19221013, 0x0C2706F6, 0x071516FF, 0x32030A1A, 0xFFFE02CD, 0xF905EC05, 0x09F50A06, 0x04FEFBFE, 
    0xFF0A03FF, 0xFEEBFAF1, 0x140D10FA, 0x12000DFA, 0xFFF0F1F5, 0x0908110A, 0xFA0701ED, 0xFD0D0A0C, 
    0x15F9ED01, 0x1214F9EE, 0x1300FB07, 0xEB01EBFD, 0xF60CF102, 0x15FF0B0F, 0x10F6F60E, 0x0205F302, 
    0xEC070AFF, 0x020901FE, 0xFDFA0FF5, 0xF2FAF30B, 0x141505FE, 0x040AF3EA, 0xFAEBEAF1, 0x10180021, 
    0xE1FF0407, 0xFDFDECFE, 0x0FE50727, 0xF2F301D2, 0x240309ED, 0xFB0C25E1, 0xFD16F80C, 0x272E1915, 
    0x02E2FF04, 0xE7D4F0D5, 0x0FFDF00D, 0xEEF60C09, 0x2F3802E7, 0x1E2004D3, 0xF3E2DE13, 0x56380A29, 
    0xF0CC26DA, 0xD4F3F1E4, 0xF91DEA41, 0xF5DD0CC3, 0x222EDAE1, 0x2D18EED1, 0x1B12FE09, 0x290F101C, 
    0xE0E136FB, 0xE8EAFAF5, 0x042DE43C, 0xF5160EDE, 0x1429C5EC, 0x092AF1F3, 0xE328F618, 0x47261513, 
    0xE5FC17D8, 0x04DEF9DF, 0x0C34E32C, 0xEC17F9DF, 0x1917F6CD, 0x1816F9F4, 0xF01B070E, 0x2A14E90B, 
    0x00D310DA, 0xDB13F6FE, 0xF4F7CD36, 0xE218EED9, 0x172AF7DD, 0x061227FB, 0x080A1A24, 0x16FAE3F9, 
    0x00D00AE1, 0xF60D04D6, 0x01F2F106, 0x01280ADD, 0x1719F7FD, 0xF0040FEB, 0xFD2EF109, 0x070CF10C, 
    0x09F120F4, 0xFE0305DE, 0xEFF6110E, 0x0D1614F6, 0x0D0C11F9, 0x1F131EE0, 0xE11D0E18, 0x1E22F20D, 
    0x0FE60005, 0xD9F8FCE7, 0x0D02EFFF, 0xFD0204EC, 0x101D0B02, 0xFE082D0C, 0xFC02102C, 0x1110E7FF, 
    0x021AF004, 0xECF4E1DD, 0x11DBEF09, 0x1A0910FC, 0x210B24E8, 0xF31A3EEF, 0xFB0A0A1E, 0x0117F0F2, 
    0x1B08EF13, 0xF7E710E5, 0x15F8F50D, 0x0F140A10, 0x1A1E1319, 0xFE043D0D, 0xEC2C0E24, 0x0C05FFE8, 
    0x02FFE221, 0xF3E201D3, 0x17F80408, 0x0719FD0D, 0x13041BF5, 0x09FE45F5, 0xE613FA2A, 0x0A1EEB06, 
    0xFAFBE21D, 0xFBED06D3, 0x13010205, 0x060D0904, 0x21100905, 0x11F543F3, 0xF3130B04, 0x061508F0, 
    0x0DE9E50C, 0xFA0E17ED, 0x1807F9E7, 0x0013EC00, 0x11F321F8, 0x18D92F08, 0xDE180719, 0x221215FA, 
    0x16FFEA0E, 0xEAFA04E2, 0x1BFBEAFA, 0x0DFFEFFB, 0x12121803, 0x0ADF3CFE, 0xE80C0705, 0x0F100518, 
    0x17F601F7, 0x01FF0DFE, 0x000F04F3, 0x1432F219, 0x05181C12, 0x14DD40DE, 0xFC031DF5, 0xEC03F308, 
    0x221FD2F8, 0xF8EDF9F3, 0xFF0111E5, 0x1520F40A, 0x010E171E, 0x11F80AF7, 0xDFED26E9, 0xC4FCEEF7, 
    0x100EC6FD, 0x05E90BF0, 0xEA042DEA, 0x1A0D0F26, 0xD8041C29, 0x20F7F9E2, 0xE8082DEF, 0xE5F4EDF5, 
    0x0DF4CBFC, 0x02F9E31D, 0x07F71CF3, 0x06F40505, 0xF41E1522, 0x0603F4FC, 0x01FC15E3, 0xFBF1F90E, 
    0xF20ED3F5, 0xE9FDF312, 0xE90F060F, 0x2B1D09E6, 0xDB07FB1C, 0x05E9E1EF, 0x040734EF, 0xF3F8EC0E, 
    0x24E9F0F5, 0xF2EDE32A, 0xE50A1B03, 0x1D3100EE, 0xF8090328, 0xF5EFFEDD, 0x210C380C, 0x23E2D7EF, 
    0x1AF008D9, 0xE309F812, 0xEB0E1F05, 0x2221F518, 0xD324F13A, 0xF0E8F91D, 0x0B0B12FD, 0x0EF612F3, 
    0x1C2205EA, 0xEB22031A, 0xD8451705, 0x123207F1, 0xE7EEEF16, 0xDE18E622, 0xF211E5FF, 0xF6F5FE17, 
    0x2E1CF8FA, 0xF4F41124, 0xE72B1CF3, 0x070D15DC, 0xCFE9DF24, 0xF81B0B10, 0xE70CF008, 0xFA09F208, 
    0xEF060DFE, 0xF8E71515, 0x0118FA24, 0xEEF6F609, 0xECEBE8EA, 0xF4F20E09, 0xF410ECFE, 0x1006100A, 
    0x09021309, 0x01EF0204, 0x090D0B0B, 0x0612F6F5, 0xEF0BED14, 0x0B03F0F3, 0x13081509, 0x09EFF10B, 
    0xF01504EC, 0x15F60614, 0x09EC0E0C, 0x12EEEFF7, 0x0113F9FB, 0xFB1015EF, 0x0615F6F7, 0x140E16EB, 
    0x0C04FCF5, 0x04F31405, 0xF0FE06F9, 0x0A1312ED, 0x07030202, 0xE60419F9, 0xFDF60B11, 0xF616031D, 
    0x110824FD, 0xFBF0F10E, 0xE0E5FFFC, 0xEFEE0BF1, 0x01020D0E, 0x07E20CEB, 0x0C0416E0, 0x0E0109DC, 
    0x0311121C, 0x1103FE07, 0x1223FEE8, 0x1112F50C, 0x09F801FF, 0x1805E3F6, 0x0BF00805, 0x4C240B0A, 
    0xD6031DF4, 0xFCFDDCE2, 0x0717F131, 0x00150FE3, 0x102BD0DD, 0x0DFCFAF4, 0x3ED8FE09, 0x50122409, 
    0xDCE51BFD, 0xE605E805, 0xF91EDF2B, 0xF5EDEEE0, 0x263BE3D8, 0x070205E7, 0x020EE732, 0x4111F81D, 
    0xFCE9FC05, 0xD8D31408, 0xF1FFE812, 0xF1F314CD, 0x271EFDF9, 0x11121EF6, 0x0210F010, 0x4725120D, 
    0xF3D906F2, 0xB7E7F1FC, 0x1315E12E, 0xE2FBF1D9, 0x381D05F7, 0x14250AF0, 0x0C0FF123, 0x3C13F629, 
    0xCCE126DE, 0xCDF0F7FE, 0xFD27E918, 0x0CFB04DA, 0x433C15E6, 0xF81F14D8, 0x05F20432, 0x232003FD, 
    0xE6F819F5, 0xD0EDF7F4, 0x0505DF2E, 0x12090ED8, 0x36441FE5, 0x141525D9, 0x0AF8072C, 0x2B280B19, 
    0xDEEA13F0, 0xC5EAF4E8, 0x1A0AF603, 0x07DB00BD, 0x472E21E0, 0xFE0D0CDC, 0x0019FA11, 0x331FFEFD, 
    0xEFE5ECEB, 0xC2FBFAD7, 0x161BE10A, 0x1FF6F2D8, 0x2A3008FE, 0xFC1B2AEF, 0x1913E419, 0x46211B10, 
    0xD5F0F505, 0xD4E705F5, 0x1317F017, 0x26F612F1, 0x2B3934F0, 0x07F514FF, 0xFD1005FA, 0x3D0E0507, 
    0xFDD1FBFA, 0xF0FCE1D3, 0x2020EF06, 0x0EDE0CF5, 0x2D33110E, 0x04E70910, 0x03F70106, 0x23EDFDFF, 
    0xFBD81919, 0xE00B03F7, 0x1B13F10E, 0x1DEFF3EB, 0x1E260008, 0x1ED51514, 0x03070618, 0x2106F9F9, 
    0xE7E5071F, 0xEB08FAD3, 0x191C01F8, 0x2DEDF3E9, 0x281B231B, 0x06C91EF6, 0x1BFE00F8, 0x33F10703, 
    0xF2D2171B, 0xD80F03E9, 0x0C04FB07, 0x1E0D04E5, 0x04042A11, 0x14C620F5, 0x1AF322F1, 0x040EF21C, 
    0xF4EF021A, 0xDD2C10E2, 0x0D1BE70C, 0x30F501F6, 0x1B131313, 0x15F005D0, 0x16141FE1, 0x091FFD0E, 
    0xF1F707E7, 0xDDFDD107, 0xFE0EED16, 0x17FD0606, 0x201607FD, 0x24CF14C5, 0x230807FB, 0x143013FE, 
    0xF0CFF0FD, 0xD2ECDFFA, 0xF1FBCEFF, 0x2313FA15, 0x1229F815, 0x15E5FFC6, 0x27062EFB, 0x100932EA, 
    0xE6CEE8DB, 0xEBF8D3F0, 0xEDE2E60D, 0x0B13FC01, 0xF235F60D, 0x0FDDFAB8, 0x0A0E09F7, 0x19191807, 
    0x00DB0FE9, 0xDC08D911, 0xD6E3EC03, 0x1220F6F5, 0x183B0710, 0x0EDDF6CF, 0x1A0909D7, 0xF71A0EF8, 
    0xE4ED28F2, 0xE30BD909, 0xE9F4FF02, 0x1C330C19, 0x25292103, 0x0F0402D9, 0x1DF90B05, 0xF81C02D5, 
    0xF50C38DC, 0xF515C807, 0xD5E00609, 0x09FD0826, 0xF73A10FB, 0x06E3EFD4, 0x1C1BF1D6, 0x0319FBF5, 
    0xF428FB0A, 0x0D1AEBF5, 0xE01B0606, 0x0715F72C, 0x0F272904, 0x09F10DFD, 0xFC0F0E12, 0xE8EFF520, 
    0xED040FF2, 0xF9F60626, 0xE112020A, 0x030D0402, 0xE7F5FD0E, 0x07FC1607, 0xE6FE0220, 0xE4FB05FA, 
    0xEE14F5FC, 0xEEFB1323, 0x05111E05, 0xFAF405EE, 0xF5F6FFF4, 0xFBF1F9F0, 0xFFF108FE, 0xF5F2EA00, 
    0xFAF6FC0F, 0xF9FD13FB, 0x010508F5, 0x02FCEBF2, 0x0AFDFC11, 0xEA14FCFA, 0xF4061411, 0x0CEE020C, 
    0x12F2F8F0, 0xFA0AF1FC, 0xF60E0BFA, 0x07F1F311, 0x13150815, 0x04ED0EFC, 0xF5F40F0E, 0x00F110F2, 
    0x15F3070F, 0xF004F2F9, 0xFF00FCF1, 0xF606F607, 0xFDF70004, 0x00ED00F5, 0xF512EE07, 0xFB07EFF0, 
    0xF3EFEEEA, 0x05FA07FB, 0x09F7F3FA, 0x05001107, 0xF1FB1515, 0x06E0F902, 0x00F510F5, 0xFB030B0C, 
    0x1DF70711, 0xFDF0E71D, 0x0FF8F9E7, 0x03EFF9FC, 0x0510FE06, 0xDFD8F902, 0x14F81920, 0xFE07F6F9, 
    0x10E234F1, 0xE3FAF22B, 0xEBE51CEC, 0xEDFC03FF, 0xEA2A091C, 0xFEFFF0F0, 0x1AF827F7, 0x2D041202, 
    0xDBE128DA, 0xCDDDE60D, 0xD8E6EA09, 0xDBE413E7, 0x0E1EE002, 0x26070606, 0x35D80917, 0x33211A13, 
    0xFED73FCE, 0xE2D9D60A, 0xD404F9FC, 0xE6FAEEF7, 0x1133E908, 0x2FFF060D, 0x4CD8211C, 0x43212E1E, 
    0xF9EB20E4, 0xCFDAE302, 0xE9FDFD24, 0xEF09F9E6, 0x0B2AFF17, 0x2C09F10E, 0x44C30DF2, 0x21113B0F, 
    0xD0F41BDD, 0xCBEEDCE3, 0xE8FDEE0E, 0x1621F6E5, 0x171BEBED, 0x25F2E500, 0x46CB011A, 0x431B2EF8, 
    0xE9DD29D9, 0xB2D7DBE8, 0xDE15E003, 0x041A00E2, 0xFB3205FD, 0x0D080000, 0x36DBFC09, 0x2E2D3A0A, 
    0xE4F015D3, 0xB5F9CFF8, 0xECEAF0FF, 0xEC19FBFD, 0x003DF61A, 0x0DFF07F2, 0x31D90AFC, 0x492B3305, 
    0xF6EF31FB, 0xC4F8CBFC, 0x09050205, 0xFC0CEDF4, 0x03321611, 0xF6E01BFE, 0x25D92707, 0x32FD20E2, 
    0xE6F025EB, 0xB117BBFF, 0x0608F80A, 0x02FF0112, 0xEC2D1409, 0x03F60BED, 0x43C60A03, 0x571E340E, 
    0xDDDD14E9, 0xA3F5DF0E, 0xF526E309, 0x05151312, 0x2147F71F, 0x19DA050D, 0x54980EF8, 0x6D421E1B, 
    0xCDEA37D6, 0x94F7BCFB, 0x0520F509, 0x0F130BF8, 0x12490E15, 0x0FDBFDD5, 0x3DC209EE, 0x671D1EE8, 
    0xE0F140EF, 0xB81BC409, 0x0531E608, 0x1A29F013, 0x192BF115, 0x2BF307C9, 0x3DD4F3EB, 0x6C2139FE, 
    0xE3DC34D6, 0xAC1DD5EE, 0xDA34FCFF, 0x0C2415ED, 0x2C1600F5, 0x2EE60DCD, 0x3BC505DC, 0x42073202, 
    0xD3DF3AD6, 0xB012F103, 0xE41CF203, 0xF822F9F3, 0xF835F717, 0x34DFFFE7, 0x57C419FE, 0x39263C2E, 
    0xDFD617EE, 0xBC0FEBED, 0xEA27CC23, 0x161D0309, 0x061EFBFC, 0x2DDBFCD1, 0x2DFEF7D1, 0x492F4DFF, 
    0xC8D4FEF6, 0xAB0DE8E1, 0xC918F131, 0x09510513, 0x2D1DF8EB, 0x2BEAF5DF, 0x39FE02DE, 0x48292906, 
    0xCFBA0902, 0xC4E7E1F1, 0xC8FEE6F6, 0x182F0A05, 0xF936F216, 0x2FCDFCC7, 0x01E814E7, 0x1F352AE9, 
    0xF4C41B0F, 0xD2E2DEF4, 0xF101FF14, 0x0F16FD02, 0xFB1A0A0E, 0x25F0ECDC, 0x1D0605D6, 0x363731F8, 
    0xFBD8F305, 0xD20EF8FB, 0xF9E4F119, 0x233204F0, 0x2A2CFF00, 0xFBEA09F5, 0x1BEA1101, 0x1209FD0D, 
    0x050B01FB, 0xEFFD0911, 0xF0F506F4, 0x0F12120E, 0x171C0604, 0x0F15030F, 0xFCF22503, 0x03EF1015, 
    0x0EEBED04, 0x0902F311, 0x0806E307, 0x03F6F607, 0x030A1AF4, 0x0807F108, 0x01F3F408, 0xEF0B110A, 
    0xFCF8080C, 0xF202FC12, 0xF5060B03, 0xF3140701, 0xF60D0AF8, 0x0D0802FD, 0x0E15F3F3, 0xF7EB0CF3, 
    0x0A03F603, 0x11110A15, 0xF4F803EF, 0xF3F7F5F0, 0x12EEFB0F, 0xEB05F4EF, 0x07F9F10E, 0xF115EF12, 
    0x09F8F214, 0xF8F6FB0E, 0x0115F3F0, 0x1512FC15, 0xF6F8FFED, 0x080AFEF7, 0x0212F604, 0x08F700FD, 
    0x00EFFC01, 0x07FCF806, 0x12FE1310, 0xF00FFC0E, 0x0A091401, 0xFAEEEBFA, 0x080315FC, 0x0C0100FD, 
    0xFEF4F80F, 0xEFFE05F4, 0x10F20F05, 0x0F0908F3, 0xFB0300F7, 0xED151413, 0xFDF911FA, 0x0DF6EEF1, 
    0x100213EE, 0xEFEB1315, 0xEE0DF515, 0xF70F0AF6, 0xFD0FEDF4, 0x0DEEFC14, 0x1013F903, 0x0FF4F9F2, 
    0xEAEDFF05, 0xF6F306ED, 0xF4F0F311, 0x040AF107, 0x01F3FBF3, 0x120313F4, 0xED16F906, 0xF2F7EE09, 
    0x0C230D08, 0x0F040CEC, 0xFA1407EF, 0xF70713EA, 0xFF130DEB, 0xFB15F2F8, 0xFF0C0B13, 0x0517F316, 
    0x0E21FC12, 0xEE2E10FB, 0xF5080612, 0x1E0C110F, 0xFB12E809, 0xF6EDFB10, 0x0BE41214, 0xF2ECE710, 
    0x0606F008, 0xF2EDEB06, 0xDD1E0219, 0xED2D1606, 0x09FDEAEF, 0x0FFAC516, 0x0901F7FF, 0x0107F3F9, 
    0xFDF8E00D, 0xD802EFFE, 0xE8310B0B, 0x01150BDE, 0xE805E807, 0x0802BCF3, 0x32D60508, 0x0EF006F2, 
    0x0D06CAFE, 0xE213FD10, 0xE92D12FE, 0xF62E0DF1, 0xF4FCFA10, 0x09FCCAFD, 0x33E506E6, 0x16F42405, 
    0xF4160609, 0xE015FF12, 0xFA05F8FD, 0xFE2E0904, 0xEBF4F3FB, 0x160ACD00, 0x3210FB02, 0x2C1826FE, 
    0xE51612F9, 0xD322EAF1, 0xD90EF70E, 0x0D29F600, 0x1B2F0105, 0xFA0DC307, 0x24F11EFF, 0x14051112, 
    0xE41C34F7, 0xDDE8EC08, 0x062718F4, 0xF61402ED, 0x051E0315, 0x1502D2F1, 0x350823F0, 0x030C0418, 
    0xECE738DE, 0xCEDDEC0E, 0xE9101509, 0xFC1713F2, 0xFC190D11, 0x1CFDAEFF, 0x43E901F7, 0x3CFD2EFA, 
    0xE3FD12F1, 0xCA19E8F7, 0xF94CE528, 0x0C1312E2, 0xFC10FEF6, 0x0BF2D204, 0x58DA0A03, 0x410A19FD, 
    0xDDF12DE0, 0xC00BEC09, 0xD2470B1A, 0x051AEF15, 0xF5230810, 0x01E1E9EC, 0x41E90DFC, 0x1E0A1912, 
    0x010A2AEB, 0xD9FEE308, 0xF84B0A0D, 0xE80FFAE7, 0x02311FF3, 0x0D13C703, 0x23FB1307, 0x2E091E12, 
    0xE21C040F, 0xE6FAF1F6, 0xF3300015, 0x190601E9, 0x1220F7FE, 0x1916E9FB, 0x33F9070D, 0x2C203D1F, 
    0xF4F1FD06, 0xDCF4F800, 0x1716D81A, 0x0F2902DA, 0x211BFB04, 0x1603E0F9, 0x34DDF5F1, 0x20FA3609, 
    0xF5D50309, 0xE7DAEC0C, 0xFEEAE019, 0xF5FDEBF3, 0xFB27F8F9, 0x1104E2FC, 0x21F308DF, 0x33153208, 
    0xCFFE051A, 0xFAEAD4F8, 0x0A05E40E, 0xFE26ED09, 0xFA03DEFE, 0x0403D70A, 0x080AF6F5, 0xF71D07EB, 
    0xFDE909FA, 0xFEF0EF06, 0x06EC0FF5, 0x0414FB08, 0xF107E5F4, 0x1BDAE713, 0x27F206EF, 0x231A2210, 
    0xF4E8EE22, 0xE9F9E0EF, 0xFEF7FFF6, 0x0D03F9E4, 0x13FDEDDE, 0x190500EF, 0x170CFFE7, 0x0F1830F6, 
    0xFAFD131E, 0xFDFDE1DF, 0x03EDEFFA, 0x1A2502F6, 0x1A0701DD, 0x190CFAE4, 0x13ECF3E8, 0x0C1E0306, 
    0xF20E01FD, 0xF50CFA08, 0x2A0CDE20, 0x28210DDE, 0x10FD14E4, 0xF00C04FD, 0x140D0314, 0xF10B08FB, 
    0xF005F00B, 0x10F6020A, 0x06F30614, 0xFDEBEC07, 0xEC0BF301, 0xFB09FEF7, 0x030FEEF4, 0x0AFE0301, 
    0xFC1410FC, 0x1000FCFE, 0xEB1311EA, 0x1003FB00, 0x10F40CF2, 0x100FFF11, 0xF3FAEDEC, 0x0B0FF213, 
    0xFAF815FA, 0xFF0AFD07, 0x16F5FBF5, 0x0DEE07EE, 0xF1EBF40C, 0xF7FC0204, 0xF10CEBEF, 0x080F0801, 
    0x020FFC06, 0x0E09F901, 0xF10710FB, 0x0700F10D, 0xFB1015F8, 0x0000000F, 0x00000000, 0xFFFFFD77, 
    0xFFFFF35B, 0xFFFFF960, 0x00000787, 0xFFFFF3F2, 0x00000206, 0x00001425, 0x00000B7E, 0xFFFFFCCC, 
    0x000001BE, 0x0000146A, 0x000008E4, 0x00000B0A, 0x00002479, 0x00000C78, 0x000005E6, 0x000006D7, 
    0xFFFFF3D5, 0x00000C3D, 0x0000072D, 0x00000118, 0x00000B46, 0x00000424, 0x00000A69, 0x0000092A, 
    0xFFFFFE50, 0x00000C02, 0x00001534, 0x000000D4, 0x00000B95, 0x00000323, 0x0000094C, 0x00000007, 
    0xE7C6D333, 0x1AFDE305, 0xFB3D43ED, 0x19F8D42A, 0xE71A0424, 0xE9D927D3, 0xC8ED14CF, 0xAEFF3C0E, 
    0x32BC22EB, 0xFADED0D9, 0x1FE6FD1E, 0x37CAFAFD, 0x2DF2C9DB, 0xFD3E1DCF, 0x2F16E639, 0x19FC1F26, 
    0xCBE2391E, 0xE82BF60B, 0x1A130ECC, 0x00E30BFE, 0xC9E7D703, 0xED1F0C25, 0x102DEC15, 0x14262925, 
    0x2B383509, 0xF519BE67, 0xF8B7DC00, 0x36D72600, 0x2C05BBD4, 0xFC3B4E04, 0xE134D4FF, 0x2C07D634, 
    0x2FC3220E, 0xFA0726BD, 0x00EBDF2F, 0xF8C3F8F7, 0x1C30E627, 0xD7193FDF, 0xF535D1D2, 0x07C3D5E4, 
    0x181A1EE4, 0x1AF73608, 0x2926260A, 0x1A18F5DE, 0x2D111333, 0xFE210B15, 0x0E39F5CD, 0xEF0A0E18, 
    0x0F3D0FFE, 0x00C4CFDB, 0x202C282A, 0xCC2631C0, 0x222932B2, 0x030B3629, 0x1519D30F, 0x1050EAB8, 
    0x3524CB0F, 0xD8BAF009, 0x0FEC503B, 0x360D313A, 0xD81B2A36, 0x16280BF5, 0x14E7E825, 0xFB322409, 
    0xE9EEFD38, 0x2C0B0338, 0xE414FE0A, 0x0121C40A, 0x10E61634, 0x06CEFCCD, 0xDB1E1F17, 0x1BD61F03, 
    0x0D58EDF8, 0xEF2AE414, 0xE3A90CC1, 0xFB04421D, 0xDA1332F7, 0x0EFDCCDB, 0x2BCF0842, 0x45E8F0B0, 
    0x2913EEFE, 0x15D42704, 0xF246ED23, 0xFFBBF82F, 0xF2EB0916, 0xF4E8F336, 0xE6EC2E23, 0xD50FFF28, 
    0x463FFD06, 0x2B20CCF7, 0xEEDDE32F, 0x1B9A44E8, 0x09FFF313, 0x0E17D4E3, 0x4226DAE2, 0xFB3113E4, 
    0x123BFF0B, 0x281A3ADF, 0xE3D5F51D, 0x2F2C2018, 0xD4DA131E, 0x2C11FFE6, 0xD8281AF9, 0x2CFB20E4, 
    0x4D50F20B, 0x17142416, 0xD0F1132F, 0xE3DCC9E9, 0x2A17E3E6, 0xFD2ECE16, 0x39FCE130, 0xE7073E2A, 
    0xCAFDDD24, 0x100C390D, 0xE7021E00, 0xD0231BF7, 0x1D0014E7, 0xDECE2E1E, 0x19E03C35, 0xEA292DE9, 
    0x29D041C7, 0xDA3E2506, 0x06EDF8E1, 0x1B0130FF, 0x09152BD7, 0xE1F2E71E, 0x1F1715E0, 0xD5DDFFC9, 
    0x00000009, 0x00000000, 0xFFFFFFF9, 0x00000014, 0x00000036, 0x0000002E, 0x0000006B, 0x0000000D, 
    0x00000004, 0x00000020, 0x0000001C, 0x00000036, 0x00000013, 0x00000020, 0xFFFFFFDC, 0xFFFFFFEB, 
    0x00000038, 0x00000013, 0x00000007, 0xD748DF20, 0xD102AC25, 0xE801C2D8, 0x121249E8, 0xF9F6A0C2, 
    0xCE00FA3D, 0x22F345B4, 0x27B6A7AE, 0x1CC81E1D, 0xF4E54AD8, 0xE415DCD5, 0xE633561A, 0x202D26B1, 
    0xE59C29C8, 0x4A0BE73B, 0xCDF3E108, 0x00A9DA1E, 0x183C3ED0, 0x2A120B2A, 0xB418F213, 0xCB4652CE, 
    0xE3C8B835, 0x29F7E4ED, 0x1BC9FB40, 0xA61CF026, 0x12EBCB0A, 0x1744C9F1, 0xBDC80104, 0xE83E0EE0, 
    0xEC102BDF, 0x4AEFAFD9, 0xFFBA1CBE, 0xD7C500CE, 0x1FCA0606, 0xD029FCAB, 0xA6AB0CF2, 0xA90F2B3B, 
    0x34212A3F, 0xC40FC5CB, 0xE2A429B0, 0x00000009, 0x00000000, 0xFFFFFFA1, 0x00000002, 0xFFFFFFFC, 
    0x0000001B, 0x00000008, 0x00000010, 0x0000004E, 0xFFFFFFF2, 0xFFFFFFEF, 0xFFFFFFFE
};



#endif